{
  "version": "1.0",
  "truncation": null,
  "padding": null,
  "added_tokens": [
    {
      "id": 0,
      "content": "[PAD]",
      "single_word": false,
      "lstrip": false,
      "rstrip": false,
      "normalized": false,
      "special": true
    },
    {
      "id": 1,
      "content": "[UNK]",
      "single_word": false,
      "lstrip": false,
      "rstrip": false,
      "normalized": false,
      "special": true
    },
    {
      "id": 2,
      "content": "[BOS]",
      "single_word": false,
      "lstrip": false,
      "rstrip": false,
      "normalized": false,
      "special": true
    },
    {
      "id": 3,
      "content": "[EOS]",
      "single_word": false,
      "lstrip": false,
      "rstrip": false,
      "normalized": false,
      "special": true
    }
  ],
  "normalizer": {
    "type": "Sequence",
    "normalizers": [
      {
        "type": "NFD"
      },
      {
        "type": "Lowercase"
      },
      {
        "type": "StripAccents"
      }
    ]
  },
  "pre_tokenizer": {
    "type": "Whitespace"
  },
  "post_processor": {
    "type": "TemplateProcessing",
    "single": [
      {
        "SpecialToken": {
          "id": "[BOS]",
          "type_id": 0
        }
      },
      {
        "Sequence": {
          "id": "A",
          "type_id": 0
        }
      },
      {
        "SpecialToken": {
          "id": "[EOS]",
          "type_id": 0
        }
      }
    ],
    "pair": [
      {
        "SpecialToken": {
          "id": "[BOS]",
          "type_id": 0
        }
      },
      {
        "Sequence": {
          "id": "A",
          "type_id": 0
        }
      },
      {
        "SpecialToken": {
          "id": "[EOS]",
          "type_id": 0
        }
      },
      {
        "Sequence": {
          "id": "B",
          "type_id": 1
        }
      },
      {
        "SpecialToken": {
          "id": "[EOS]",
          "type_id": 1
        }
      }
    ],
    "special_tokens": {
      "[BOS]": {
        "id": "[BOS]",
        "ids": [
          2
        ],
        "tokens": [
          "[BOS]"
        ]
      },
      "[EOS]": {
        "id": "[EOS]",
        "ids": [
          3
        ],
        "tokens": [
          "[EOS]"
        ]
      }
    }
  },
  "decoder": null,
  "model": {
    "type": "BPE",
    "dropout": null,
    "unk_token": "[UNK]",
    "continuing_subword_prefix": null,
    "end_of_word_suffix": null,
    "fuse_unk": false,
    "byte_fallback": false,
    "ignore_merges": false,
    "vocab": {
      "[PAD]": 0,
      "[UNK]": 1,
      "[BOS]": 2,
      "[EOS]": 3,
      "\"": 4,
      "'": 5,
      "(": 6,
      ")": 7,
      ",": 8,
      "-": 9,
      "0": 10,
      "1": 11,
      "2": 12,
      "3": 13,
      "4": 14,
      "5": 15,
      "6": 16,
      "7": 17,
      "8": 18,
      "9": 19,
      ":": 20,
      ";": 21,
      "а": 22,
      "б": 23,
      "в": 24,
      "г": 25,
      "д": 26,
      "е": 27,
      "ж": 28,
      "з": 29,
      "и": 30,
      "к": 31,
      "л": 32,
      "м": 33,
      "н": 34,
      "о": 35,
      "п": 36,
      "р": 37,
      "с": 38,
      "т": 39,
      "у": 40,
      "ф": 41,
      "х": 42,
      "ц": 43,
      "ч": 44,
      "ш": 45,
      "щ": 46,
      "ъ": 47,
      "ы": 48,
      "ь": 49,
      "э": 50,
      "ю": 51,
      "я": 52,
      "ѣ": 53,
      "ѳ": 54,
      "–": 55,
      "—": 56,
      "…": 57,
      "то": 58,
      "на": 59,
      "но": 60,
      "не": 61,
      "по": 62,
      "ст": 63,
      "ко": 64,
      "ал": 65,
      "го": 66,
      "ро": 67,
      "ка": 68,
      "ра": 69,
      "ни": 70,
      "во": 71,
      "ре": 72,
      "ло": 73,
      "ли": 74,
      "ри": 75,
      "ла": 76,
      "ве": 77,
      "ть": 78,
      "ва": 79,
      "те": 80,
      "за": 81,
      "де": 82,
      "до": 83,
      "да": 84,
      "ле": 85,
      "се": 86,
      "мо": 87,
      "же": 88,
      "ся": 89,
      "ме": 90,
      "че": 91,
      "ны": 92,
      "бы": 93,
      "ль": 94,
      "ви": 95,
      "ми": 96,
      "сь": 97,
      "та": 98,
      "что": 99,
      "ки": 100,
      "ну": 101,
      "ру": 102,
      "вы": 103,
      "со": 104,
      "ти": 105,
      "про": 106,
      "ди": 107,
      "от": 108,
      "пе": 109,
      "он": 110,
      "ма": 111,
      "бо": 112,
      "бе": 113,
      "ше": 114,
      "му": 115,
      "при": 116,
      "хо": 117,
      "ку": 118,
      "ду": 119,
      "ня": 120,
      "чи": 121,
      "са": 122,
      "ста": 123,
      "сто": 124,
      "все": 125,
      "ши": 126,
      "си": 127,
      "это": 128,
      "ча": 129,
      "ля": 130,
      "его": 131,
      "как": 132,
      "ала": 133,
      "из": 134,
      "ты": 135,
      "раз": 136,
      "нно": 137,
      "ры": 138,
      "ска": 139,
      "лу": 140,
      "об": 141,
      "жи": 142,
      "нь": 143,
      "али": 144,
      "ще": 145,
      "па": 146,
      "ско": 147,
      "лю": 148,
      "бу": 149,
      "сти": 150,
      "ту": 151,
      "она": 152,
      "ря": 153,
      "га": 154,
      "под": 155,
      "пре": 156,
      "зна": 157,
      "ет": 158,
      "ние": 159,
      "пи": 160,
      "сть": 161,
      "ша": 162,
      "сво": 163,
      "лся": 164,
      "мы": 165,
      "ги": 166,
      "вал": 167,
      "ба": 168,
      "гово": 169,
      "вер": 170,
      "лы": 171,
      "нны": 172,
      "це": 173,
      "так": 174,
      "гда": 175,
      "тель": 176,
      "рас": 177,
      "сказ": 178,
      "кои": 179,
      "кото": 180,
      "би": 181,
      "ее": 182,
      "пу": 183,
      "пере": 184,
      "су": 185,
      "ву": 186,
      "жа": 187,
      "щи": 188,
      "лько": 189,
      "гла": 190,
      "дру": 191,
      "чу": 192,
      "гу": 193,
      "нои": 194,
      "ния": 195,
      "было": 196,
      "ца": 197,
      "сле": 198,
      "говори": 199,
      "сте": 200,
      "ски": 201,
      "ды": 202,
      "ало": 203,
      "рь": 204,
      "ком": 205,
      "мне": 206,
      "ск": 207,
      "пра": 208,
      "ться": 209,
      "дь": 210,
      "еи": 211,
      "аль": 212,
      "дно": 213,
      "спо": 214,
      "шь": 215,
      "ныи": 216,
      "вст": 217,
      "меня": 218,
      "ему": 219,
      "ке": 220,
      "вши": 221,
      "голо": 222,
      "тре": 223,
      "вз": 224,
      "воз": 225,
      "когда": 226,
      "жно": 227,
      "сло": 228,
      "ха": 229,
      "только": 230,
      "вая": 231,
      "том": 232,
      "слу": 233,
      "бя": 234,
      "тся": 235,
      "был": 236,
      "лась": 237,
      "ная": 238,
      "але": 239,
      "сказал": 240,
      "ного": 241,
      "еще": 242,
      "их": 243,
      "гля": 244,
      "нии": 245,
      "дол": 246,
      "мя": 247,
      "ем": 248,
      "ные": 249,
      "уже": 250,
      "вот": 251,
      "чего": 252,
      "ходи": 253,
      "стра": 254,
      "неи": 255,
      "сме": 256,
      "сли": 257,
      "чно": 258,
      "нул": 259,
      "ков": 260,
      "вои": 261,
      "дя": 262,
      "чем": 263,
      "сы": 264,
      "него": 265,
      "каз": 266,
      "сту": 267,
      "нет": 268,
      "шел": 269,
      "ным": 270,
      "тельно": 271,
      "которы": 272,
      "без": 273,
      "дет": 274,
      "ство": 275,
      "ром": 276,
      "вно": 277,
      "боль": 278,
      "смо": 279,
      "тя": 280,
      "шу": 281,
      "ался": 282,
      "пя": 283,
      "нее": 284,
      "лове": 285,
      "дел": 286,
      "вать": 287,
      "дела": 288,
      "ним": 289,
      "проси": 290,
      "гра": 291,
      "челове": 292,
      "ге": 293,
      "лись": 294,
      "пред": 295,
      "ров": 296,
      "они": 297,
      "ных": 298,
      "оче": 299,
      "кто": 300,
      "жал": 301,
      "пы": 302,
      "од": 303,
      "стоя": 304,
      "три": 305,
      "фи": 306,
      "нов": 307,
      "для": 308,
      "ан": 309,
      "сам": 310,
      "кон": 311,
      "ную": 312,
      "зо": 313,
      "мои": 314,
      "вре": 315,
      "тем": 316,
      "пол": 317,
      "чер": 318,
      "глаза": 319,
      "ща": 320,
      "стве": 321,
      "стро": 322,
      "лиц": 323,
      "тепе": 324,
      "вле": 325,
      "теперь": 326,
      "вали": 327,
      "кры": 328,
      "чал": 329,
      "или": 330,
      "све": 331,
      "пер": 332,
      "быть": 333,
      "друг": 334,
      "кра": 335,
      "чувст": 336,
      "очень": 337,
      "нныи": 338,
      "ют": 339,
      "оста": 340,
      "сно": 341,
      "чь": 342,
      "отве": 343,
      "ясь": 344,
      "вала": 345,
      "была": 346,
      "зи": 347,
      "лось": 348,
      "после": 349,
      "дум": 350,
      "того": 351,
      "ци": 352,
      "себя": 353,
      "пла": 354,
      "ис": 355,
      "сер": 356,
      "шо": 357,
      "дер": 358,
      "эти": 359,
      "тно": 360,
      "може": 361,
      "нем": 362,
      "зы": 363,
      "пле": 364,
      "ется": 365,
      "нима": 366,
      "жен": 367,
      "свои": 368,
      "мол": 369,
      "рез": 370,
      "сты": 371,
      "даже": 372,
      "име": 373,
      "дин": 374,
      "сла": 375,
      "вя": 376,
      "вич": 377,
      "деи": 378,
      "бра": 379,
      "кру": 380,
      "жу": 381,
      "кого": 382,
      "кре": 383,
      "вас": 384,
      "спроси": 385,
      "бро": 386,
      "кри": 387,
      "дом": 388,
      "говорил": 389,
      "над": 390,
      "кое": 391,
      "если": 392,
      "шка": 393,
      "алось": 394,
      "хи": 395,
      "поло": 396,
      "бле": 397,
      "вам": 398,
      "слы": 399,
      "которо": 400,
      "хоро": 401,
      "кие": 402,
      "кии": 403,
      "кая": 404,
      "тому": 405,
      "жде": 406,
      "чтобы": 407,
      "фе": 408,
      "воль": 409,
      "пять": 410,
      "ива": 411,
      "вля": 412,
      "зя": 413,
      "гру": 414,
      "доро": 415,
      "заме": 416,
      "тро": 417,
      "где": 418,
      "были": 419,
      "нием": 420,
      "кня": 421,
      "ез": 422,
      "выи": 423,
      "тра": 424,
      "может": 425,
      "зе": 426,
      "само": 427,
      "час": 428,
      "вдруг": 429,
      "обра": 430,
      "тил": 431,
      "глу": 432,
      "ками": 433,
      "ев": 434,
      "надо": 435,
      "цы": 436,
      "жиз": 437,
      "коне": 438,
      "ничего": 439,
      "вше": 440,
      "перед": 441,
      "тер": 442,
      "ном": 443,
      "там": 444,
      "лицо": 445,
      "крас": 446,
      "сторо": 447,
      "сколько": 448,
      "скии": 449,
      "улы": 450,
      "каза": 451,
      "сказала": 452,
      "себе": 453,
      "тру": 454,
      "нные": 455,
      "хот": 456,
      "одно": 457,
      "тут": 458,
      "стви": 459,
      "род": 460,
      "день": 461,
      "ин": 462,
      "ющи": 463,
      "дума": 464,
      "ное": 465,
      "них": 466,
      "смотре": 467,
      "ались": 468,
      "подо": 469,
      "ник": 470,
      "два": 471,
      "кро": 472,
      "бла": 473,
      "нулся": 474,
      "ете": 475,
      "ннои": 476,
      "всем": 477,
      "моло": 478,
      "алась": 479,
      "друго": 480,
      "тот": 481,
      "ску": 482,
      "цу": 483,
      "мог": 484,
      "этого": 485,
      "человек": 486,
      "пря": 487,
      "ите": 488,
      "уж": 489,
      "боле": 490,
      "есть": 491,
      "тол": 492,
      "время": 493,
      "потом": 494,
      "будет": 495,
      "будь": 496,
      "скои": 497,
      "дал": 498,
      "им": 499,
      "лов": 500,
      "сказа": 501,
      "ор": 502,
      "ким": 503,
      "спе": 504,
      "люби": 505,
      "ства": 506,
      "бли": 507,
      "мину": 508,
      "шла": 509,
      "ешь": 510,
      "опять": 511,
      "этот": 512,
      "хоте": 513,
      "чувство": 514,
      "дро": 515,
      "мер": 516,
      "ху": 517,
      "полу": 518,
      "бои": 519,
      "нови": 520,
      "ведь": 521,
      "ар": 522,
      "пь": 523,
      "поч": 524,
      "вся": 525,
      "можно": 526,
      "нас": 527,
      "ню": 528,
      ",-": 529,
      "дре": 530,
      "нула": 531,
      "ника": 532,
      "вели": 533,
      "рю": 534,
      "тебя": 535,
      "тои": 536,
      "комна": 537,
      "один": 538,
      "пло": 539,
      "дело": 540,
      "вто": 541,
      "одна": 542,
      "стью": 543,
      "тебе": 544,
      "ливо": 545,
      "вшись": 546,
      "кар": 547,
      "гин": 548,
      "две": 549,
      "дра": 550,
      "ского": 551,
      "думал": 552,
      "ок": 553,
      "спросил": 554,
      "нным": 555,
      "сю": 556,
      "стал": 557,
      "\",": 558,
      "обе": 559,
      "нибудь": 560,
      "вра": 561,
      "нное": 562,
      "благо": 563,
      "потому": 564,
      "гри": 565,
      "лет": 566,
      "нных": 567,
      "тоже": 568,
      "ких": 569,
      "кла": 570,
      "жда": 571,
      "буд": 572,
      "слова": 573,
      "зь": 574,
      "сеи": 575,
      "тво": 576,
      "нач": 577,
      "мни": 578,
      "щу": 579,
      "ран": 580,
      "кли": 581,
      "ными": 582,
      "вался": 583,
      "дво": 584,
      "стре": 585,
      "стои": 586,
      "тал": 587,
      "вил": 588,
      "ман": 589,
      "чет": 590,
      "взгля": 591,
      "рии": 592,
      "сча": 593,
      "образ": 594,
      "прия": 595,
      "ех": 596,
      "улыб": 597,
      "гор": 598,
      "будто": 599,
      "поз": 600,
      "нико": 601,
      "виде": 602,
      "вар": 603,
      "дов": 604,
      "дня": 605,
      "жду": 606,
      "стя": 607,
      "тогда": 608,
      "ках": 609,
      "вь": 610,
      "нного": 611,
      "всех": 612,
      "алек": 613,
      "знаю": 614,
      "зу": 615,
      "прав": 616,
      "спокои": 617,
      "которыи": 618,
      "куда": 619,
      "всегда": 620,
      "хва": 621,
      "тор": 622,
      "больше": 623,
      "шли": 624,
      "вшии": 625,
      "вало": 626,
      "дви": 627,
      "зем": 628,
      "несколько": 629,
      "нове": 630,
      "уме": 631,
      "види": 632,
      "тив": 633,
      "сказать": 634,
      "ино": 635,
      "своеи": 636,
      "ожи": 637,
      "фа": 638,
      "много": 639,
      "продол": 640,
      "теле": 641,
      "которые": 642,
      "шно": 643,
      "мар": 644,
      "осо": 645,
      "стно": 646,
      "спи": 647,
      "реши": 648,
      "через": 649,
      "бес": 650,
      "лег": 651,
      "руки": 652,
      "более": 653,
      "рая": 654,
      "сол": 655,
      "пои": 656,
      "поня": 657,
      "вым": 658,
      "чему": 659,
      "точно": 660,
      "весе": 661,
      "силь": 662,
      "этом": 663,
      "гро": 664,
      "тов": 665,
      "нам": 666,
      "воро": 667,
      "доволь": 668,
      "шки": 669,
      "нная": 670,
      "какои": 671,
      "почти": 672,
      "шая": 673,
      "нув": 674,
      "сом": 675,
      "любо": 676,
      "жение": 677,
      "зде": 678,
      "госпо": 679,
      "пор": 680,
      "встре": 681,
      "вет": 682,
      "свою": 683,
      "казалось": 684,
      "взя": 685,
      "буду": 686,
      "конец": 687,
      "совер": 688,
      "руку": 689,
      "кнул": 690,
      "ум": 691,
      "дои": 692,
      "луч": 693,
      "женщи": 694,
      "вари": 695,
      "вые": 696,
      "серд": 697,
      "нию": 698,
      "пусти": 699,
      "хорошо": 700,
      "тыи": 701,
      "чка": 702,
      "сни": 703,
      "подня": 704,
      "вла": 705,
      "дать": 706,
      "обо": 707,
      "спра": 708,
      "пока": 709,
      "паль": 710,
      "вает": 711,
      "эта": 712,
      "самгин": 713,
      "мени": 714,
      "слыш": 715,
      "видел": 716,
      "нему": 717,
      "вол": 718,
      "ъя": 719,
      "коро": 720,
      "рил": 721,
      "коле": 722,
      "обще": 723,
      "обы": 724,
      "хотя": 725,
      "кую": 726,
      "между": 727,
      "чки": 728,
      "изве": 729,
      "нт": 730,
      "стари": 731,
      "вме": 732,
      "рал": 733,
      "воло": 734,
      "могу": 735,
      "григо": 736,
      "голову": 737,
      "кло": 738,
      "люди": 739,
      "нова": 740,
      "послед": 741,
      "долго": 742,
      "князь": 743,
      "шеи": 744,
      "весь": 745,
      "вых": 746,
      "коло": 747,
      "стави": 748,
      "ост": 749,
      "говорить": 750,
      "чтоб": 751,
      "прави": 752,
      "соверше": 753,
      "знал": 754,
      "сре": 755,
      "уди": 756,
      "сов": 757,
      "мать": 758,
      "фо": 759,
      "лыи": 760,
      "жала": 761,
      "свое": 762,
      "наконец": 763,
      "други": 764,
      "ноги": 765,
      "андре": 766,
      "чита": 767,
      "верь": 768,
      "чески": 769,
      "совсем": 770,
      "жить": 771,
      "людеи": 772,
      "радо": 773,
      "оте": 774,
      "чит": 775,
      "лом": 776,
      "бно": 777,
      "просто": 778,
      "сеичас": 779,
      "вое": 780,
      "жизнь": 781,
      "тря": 782,
      "понима": 783,
      "жела": 784,
      "ваясь": 785,
      "пет": 786,
      "жды": 787,
      "кор": 788,
      "другои": 789,
      "здесь": 790,
      "дома": 791,
      "жизни": 792,
      "цо": 793,
      "ужа": 794,
      "дере": 795,
      "жил": 796,
      "особе": 797,
      "никогда": 798,
      "вую": 799,
      "лица": 800,
      "нуть": 801,
      "высо": 802,
      "фран": 803,
      "гром": 804,
      "тери": 805,
      "дали": 806,
      "говорила": 807,
      "гре": 808,
      "делать": 809,
      "сами": 810,
      "зло": 811,
      "этои": 812,
      "мале": 813,
      "случа": 814,
      "сви": 815,
      "объя": 816,
      "уве": 817,
      "носи": 818,
      "всего": 819,
      "ер": 820,
      "пал": 821,
      "своего": 822,
      "свя": 823,
      "против": 824,
      "казы": 825,
      "стало": 826,
      "вспо": 827,
      "хозя": 828,
      "лоша": 829,
      "кни": 830,
      "шего": 831,
      "дли": 832,
      "малень": 833,
      "води": 834,
      "пись": 835,
      "останови": 836,
      "такои": 837,
      "уби": 838,
      "смер": 839,
      "уи": 840,
      "тихо": 841,
      "почему": 842,
      "давно": 843,
      "мина": 844,
      "жения": 845,
      "ваться": 846,
      "ская": 847,
      "никола": 848,
      "чала": 849,
      "дем": 850,
      "вом": 851,
      "вопро": 852,
      "горо": 853,
      "холо": 854,
      "нную": 855,
      "соб": 856,
      "чил": 857,
      "шло": 858,
      "деле": 859,
      "рус": 860,
      "лучше": 861,
      "эту": 862,
      "снова": 863,
      "молча": 864,
      "каже": 865,
      "откры": 866,
      "юсь": 867,
      "ственно": 868,
      "деся": 869,
      "пан": 870,
      "писа": 871,
      "нель": 872,
      "щего": 873,
      "знако": 874,
      "юще": 875,
      "самы": 876,
      "говорит": 877,
      "ехал": 878,
      "нулась": 879,
      "смотрел": 880,
      "спа": 881,
      "свет": 882,
      "голос": 883,
      "въ": 884,
      "вого": 885,
      "дверь": 886,
      "мое": 887,
      "совершенно": 888,
      "лице": 889,
      "нце": 890,
      "наде": 891,
      "чера": 892,
      "доб": 893,
      "разгово": 894,
      "минуту": 895,
      "тяже": 896,
      "вшие": 897,
      "вид": 898,
      "отец": 899,
      "быстро": 900,
      "рази": 901,
      "глазами": 902,
      "человека": 903,
      "ходя": 904,
      "уго": 905,
      "слуша": 906,
      "броси": 907,
      "уда": 908,
      "пожал": 909,
      "зад": 910,
      "зву": 911,
      "сан": 912,
      "держа": 913,
      "чая": 914,
      "видно": 915,
      "бога": 916,
      "ночь": 917,
      "ству": 918,
      "возь": 919,
      "муж": 920,
      "ходил": 921,
      "сердце": 922,
      "наи": 923,
      "бер": 924,
      "всю": 925,
      "офи": 926,
      "дели": 927,
      "вне": 928,
      "вин": 929,
      "ском": 930,
      "твер": 931,
      "ских": 932,
      "конечно": 933,
      "тотчас": 934,
      "рабо": 935,
      "оби": 936,
      "ются": 937,
      "маль": 938,
      "чку": 939,
      "учи": 940,
      "ах": 941,
      "тере": 942,
      "хотел": 943,
      "сне": 944,
      "рую": 945,
      "зав": 946,
      "блю": 947,
      "стар": 948,
      "пар": 949,
      "нными": 950,
      "вел": 951,
      "сму": 952,
      "рассказ": 953,
      "ною": 954,
      "нельзя": 955,
      "произ": 956,
      "тые": 957,
      "разу": 958,
      "воск": 959,
      "дву": 960,
      "круг": 961,
      "цать": 962,
      "ников": 963,
      "спраши": 964,
      "бор": 965,
      "счаст": 966,
      "помни": 967,
      "ставля": 968,
      "вших": 969,
      "оно": 970,
      "поле": 971,
      "большо": 972,
      "кажется": 973,
      "нька": 974,
      "моя": 975,
      "сама": 976,
      "чувствовал": 977,
      "нужно": 978,
      "бере": 979,
      "ших": 980,
      "вшего": 981,
      "таки": 982,
      "выра": 983,
      "чик": 984,
      "такое": 985,
      "говоря": 986,
      "особенно": 987,
      "шком": 988,
      "нами": 989,
      "сдел": 990,
      "которои": 991,
      "мед": 992,
      "теля": 993,
      "ожида": 994,
      "приня": 995,
      "гото": 996,
      "мыс": 997,
      "вни": 998,
      "гом": 999,
      "ции": 1000,
      "тился": 1001,
      "тила": 1002,
      "григории": 1003,
      "мало": 1004,
      "оде": 1005,
      "рои": 1006,
      "рен": 1007,
      "офице": 1008,
      "хоть": 1009,
      "дова": 1010,
      "пыт": 1011,
      "сси": 1012,
      "вместе": 1013,
      "недо": 1014,
      "шую": 1015,
      "однако": 1016,
      "нович": 1017,
      "скоро": 1018,
      "бот": 1019,
      "дале": 1020,
      "нах": 1021,
      "тая": 1022,
      "нин": 1023,
      "ские": 1024,
      "зачем": 1025,
      "повто": 1026,
      "похо": 1027,
      "),": 1028,
      "жел": 1029,
      "ток": 1030,
      "прямо": 1031,
      "хаи": 1032,
      "стол": 1033,
      "шку": 1034,
      "валась": 1035,
      "чали": 1036,
      "тю": 1037,
      "кою": 1038,
      "нес": 1039,
      "прежде": 1040,
      "смея": 1041,
      "вались": 1042,
      "суда": 1043,
      "своих": 1044,
      "вос": 1045,
      "завтра": 1046,
      "сили": 1047,
      "даль": 1048,
      "сколь": 1049,
      "бри": 1050,
      "нер": 1051,
      "знать": 1052,
      "гал": 1053,
      "успе": 1054,
      "внима": 1055,
      "лые": 1056,
      "скри": 1057,
      "ники": 1058,
      "сем": 1059,
      "какие": 1060,
      "нья": 1061,
      "бур": 1062,
      "алексан": 1063,
      "которого": 1064,
      "горе": 1065,
      "глаз": 1066,
      "хом": 1067,
      "тить": 1068,
      "роди": 1069,
      "шии": 1070,
      "которая": 1071,
      "клю": 1072,
      "ними": 1073,
      "тон": 1074,
      "тки": 1075,
      "гости": 1076,
      "чаи": 1077,
      "равно": 1078,
      "сего": 1079,
      "пове": 1080,
      "серди": 1081,
      "убе": 1082,
      "кнове": 1083,
      "лит": 1084,
      "чина": 1085,
      "своим": 1086,
      "нра": 1087,
      "ом": 1088,
      "стоял": 1089,
      "ством": 1090,
      "сове": 1091,
      "сня": 1092,
      "мор": 1093,
      "пошел": 1094,
      "жали": 1095,
      "ван": 1096,
      "жало": 1097,
      "какая": 1098,
      "начал": 1099,
      "знает": 1100,
      "разве": 1101,
      "ак": 1102,
      "кому": 1103,
      "вздо": 1104,
      "гая": 1105,
      "деистви": 1106,
      "вами": 1107,
      "хозяи": 1108,
      "смотри": 1109,
      "рыи": 1110,
      "согла": 1111,
      "михаи": 1112,
      "ред": 1113,
      "лои": 1114,
      "еха": 1115,
      "клим": 1116,
      "вс": 1117,
      "ленно": 1118,
      "строи": 1119,
      "гляды": 1120,
      "глядя": 1121,
      "которое": 1122,
      "впро": 1123,
      "подумал": 1124,
      "обыкнове": 1125,
      "хе": 1126,
      "мере": 1127,
      "еди": 1128,
      "возможно": 1129,
      "этих": 1130,
      "тан": 1131,
      "чуть": 1132,
      "яви": 1133,
      "графи": 1134,
      "мысли": 1135,
      "вшеи": 1136,
      "впрочем": 1137,
      "держи": 1138,
      "дил": 1139,
      "ровь": 1140,
      "ступи": 1141,
      "дете": 1142,
      "рья": 1143,
      "ответил": 1144,
      "именно": 1145,
      "стала": 1146,
      "ющии": 1147,
      "пав": 1148,
      "хло": 1149,
      "бою": 1150,
      "ваше": 1151,
      "съ": 1152,
      "рова": 1153,
      "шим": 1154,
      "хри": 1155,
      "францу": 1156,
      "знаете": 1157,
      "матери": 1158,
      "нье": 1159,
      "этим": 1160,
      "правда": 1161,
      "кал": 1162,
      "тии": 1163,
      "поро": 1164,
      "рить": 1165,
      "испу": 1166,
      "интере": 1167,
      "вну": 1168,
      "скоре": 1169,
      "горя": 1170,
      "душе": 1171,
      "анна": 1172,
      "голосом": 1173,
      "андреи": 1174,
      "спросила": 1175,
      "боро": 1176,
      "свобо": 1177,
      "наро": 1178,
      "однои": 1179,
      "добро": 1180,
      "приятно": 1181,
      "город": 1182,
      "ряд": 1183,
      "хра": 1184,
      "брат": 1185,
      "ница": 1186,
      "продолжал": 1187,
      "ницы": 1188,
      "кова": 1189,
      "нею": 1190,
      "мен": 1191,
      "цве": 1192,
      "шие": 1193,
      "широ": 1194,
      "рно": 1195,
      "солда": 1196,
      "верх": 1197,
      "иван": 1198,
      "шал": 1199,
      "пода": 1200,
      "слишком": 1201,
      "иск": 1202,
      "хочу": 1203,
      "шля": 1204,
      "назад": 1205,
      "которых": 1206,
      "прекрас": 1207,
      "стов": 1208,
      "одного": 1209,
      "рия": 1210,
      "рассказы": 1211,
      "бре": 1212,
      "шеп": 1213,
      "сегодня": 1214,
      "сел": 1215,
      "должно": 1216,
      "фу": 1217,
      "довольно": 1218,
      "отвечал": 1219,
      "иванов": 1220,
      "лен": 1221,
      "пис": 1222,
      "лишь": 1223,
      "бума": 1224,
      "гли": 1225,
      "пожалуи": 1226,
      "торо": 1227,
      "щая": 1228,
      "года": 1229,
      "дми": 1230,
      "дить": 1231,
      "жна": 1232,
      "кам": 1233,
      "которую": 1234,
      "улыба": 1235,
      "гами": 1236,
      "меи": 1237,
      "поме": 1238,
      "моеи": 1239,
      "право": 1240,
      "жать": 1241,
      "докто": 1242,
      "скую": 1243,
      "сюда": 1244,
      "вспомни": 1245,
      "дала": 1246,
      "ход": 1247,
      "тесь": 1248,
      "ское": 1249,
      "евна": 1250,
      "вышел": 1251,
      "чат": 1252,
      "помо": 1253,
      "тех": 1254,
      "тыся": 1255,
      "верно": 1256,
      "бог": 1257,
      "нице": 1258,
      "побе": 1259,
      "рак": 1260,
      "моск": 1261,
      "евич": 1262,
      "бь": 1263,
      "ната": 1264,
      "мет": 1265,
      "товари": 1266,
      "стали": 1267,
      "вчера": 1268,
      "иг": 1269,
      "чиво": 1270,
      "лая": 1271,
      "иногда": 1272,
      "сма": 1273,
      "суще": 1274,
      "никто": 1275,
      "смотря": 1276,
      "начала": 1277,
      "сен": 1278,
      "менно": 1279,
      "ден": 1280,
      "мая": 1281,
      "вро": 1282,
      "кол": 1283,
      "вара": 1284,
      "испо": 1285,
      "возвра": 1286,
      "должен": 1287,
      "мило": 1288,
      "сед": 1289,
      "хле": 1290,
      "говорили": 1291,
      "таи": 1292,
      "петро": 1293,
      "тых": 1294,
      "исто": 1295,
      "тать": 1296,
      "туда": 1297,
      "видеть": 1298,
      "руками": 1299,
      "сидел": 1300,
      "уви": 1301,
      "голу": 1302,
      "вон": 1303,
      "сдела": 1304,
      "слово": 1305,
      "какое": 1306,
      "стья": 1307,
      "скры": 1308,
      "отца": 1309,
      "головои": 1310,
      "пом": 1311,
      "медленно": 1312,
      "зре": 1313,
      "первыи": 1314,
      "щеи": 1315,
      "нат": 1316,
      "кими": 1317,
      "говорю": 1318,
      "стеи": 1319,
      "краси": 1320,
      "ясно": 1321,
      "кончи": 1322,
      "вод": 1323,
      "пора": 1324,
      "могла": 1325,
      "чать": 1326,
      "стер": 1327,
      "ходит": 1328,
      "пьер": 1329,
      "след": 1330,
      "кричал": 1331,
      "сере": 1332,
      "двух": 1333,
      "тия": 1334,
      "привы": 1335,
      "кроме": 1336,
      "любовь": 1337,
      "среди": 1338,
      "цев": 1339,
      "зеле": 1340,
      "веро": 1341,
      "телеи": 1342,
      "кажды": 1343,
      "ото": 1344,
      "нев": 1345,
      "скажи": 1346,
      "времени": 1347,
      "мом": 1348,
      "тым": 1349,
      "цело": 1350,
      "собои": 1351,
      "мари": 1352,
      "боя": 1353,
      "чнои": 1354,
      "рк": 1355,
      "пья": 1356,
      "креп": 1357,
      "приба": 1358,
      "мысль": 1359,
      "свер": 1360,
      "мыи": 1361,
      "чныи": 1362,
      "коман": 1363,
      "преж": 1364,
      "четы": 1365,
      "неу": 1366,
      "часто": 1367,
      "около": 1368,
      "ехать": 1369,
      "затем": 1370,
      "думать": 1371,
      "подви": 1372,
      "нок": 1373,
      "весело": 1374,
      "комнате": 1375,
      "ствие": 1376,
      "ступ": 1377,
      "опа": 1378,
      "яр": 1379,
      "прости": 1380,
      "двери": 1381,
      "запа": 1382,
      "нном": 1383,
      "жны": 1384,
      "госуда": 1385,
      "щии": 1386,
      "мнои": 1387,
      "мужи": 1388,
      "шед": 1389,
      "мах": 1390,
      "золо": 1391,
      "хов": 1392,
      "спу": 1393,
      "тами": 1394,
      "пола": 1395,
      "нить": 1396,
      "лест": 1397,
      "кнула": 1398,
      "следу": 1399,
      "знаешь": 1400,
      "начина": 1401,
      "место": 1402,
      "хоче": 1403,
      "ноше": 1404,
      "лым": 1405,
      "семь": 1406,
      "благода": 1407,
      "рядом": 1408,
      "вают": 1409,
      "возду": 1410,
      "заве": 1411,
      "комнату": 1412,
      "жении": 1413,
      "столь": 1414,
      "мся": 1415,
      "фор": 1416,
      "мяг": 1417,
      "кля": 1418,
      "стороны": 1419,
      "моего": 1420,
      "ским": 1421,
      "заня": 1422,
      "слышал": 1423,
      "повер": 1424,
      "вперед": 1425,
      "мысле": 1426,
      "ровна": 1427,
      "мимо": 1428,
      "стару": 1429,
      "жь": 1430,
      "мал": 1431,
      "чеи": 1432,
      "станови": 1433,
      "поте": 1434,
      "состоя": 1435,
      "ницу": 1436,
      "вста": 1437,
      "дныи": 1438,
      "нка": 1439,
      "вшая": 1440,
      "рок": 1441,
      "самом": 1442,
      "ог": 1443,
      "работ": 1444,
      "жена": 1445,
      "зов": 1446,
      "заметил": 1447,
      "квар": 1448,
      "передо": 1449,
      "ступа": 1450,
      "еже": 1451,
      "словно": 1452,
      "игра": 1453,
      "хотелось": 1454,
      "такие": 1455,
      "бары": 1456,
      "думала": 1457,
      "мир": 1458,
      "восто": 1459,
      "вече": 1460,
      "дам": 1461,
      "рукои": 1462,
      "страш": 1463,
      "слов": 1464,
      "федо": 1465,
      "позво": 1466,
      "тих": 1467,
      "вен": 1468,
      "деву": 1469,
      "ходить": 1470,
      "дешь": 1471,
      "ваи": 1472,
      "давы": 1473,
      "тка": 1474,
      "валось": 1475,
      "нувшись": 1476,
      "разговор": 1477,
      "своем": 1478,
      "цами": 1479,
      "закры": 1480,
      "письмо": 1481,
      "дни": 1482,
      "сторону": 1483,
      "посте": 1484,
      "нули": 1485,
      "прово": 1486,
      "нрави": 1487,
      "места": 1488,
      "гина": 1489,
      "пят": 1490,
      "молодои": 1491,
      "уни": 1492,
      "части": 1493,
      "ями": 1494,
      "усме": 1495,
      "кан": 1496,
      "дите": 1497,
      "ссо": 1498,
      "предло": 1499,
      "деиствительно": 1500,
      "пала": 1501,
      "ньше": 1502,
      "женщина": 1503,
      "иванович": 1504,
      "самого": 1505,
      "мра": 1506,
      "домои": 1507,
      "души": 1508,
      "вли": 1509,
      "вича": 1510,
      "дель": 1511,
      "кали": 1512,
      "стара": 1513,
      "значит": 1514,
      "мою": 1515,
      "вскри": 1516,
      "идет": 1517,
      "реи": 1518,
      "этому": 1519,
      "нки": 1520,
      "мг": 1521,
      "строе": 1522,
      "деньги": 1523,
      "таким": 1524,
      "терпе": 1525,
      "николаи": 1526,
      "меся": 1527,
      "воскли": 1528,
      "говари": 1529,
      "фь": 1530,
      "нил": 1531,
      "ально": 1532,
      "уми": 1533,
      "чрез": 1534,
      "легко": 1535,
      "котором": 1536,
      "краи": 1537,
      "взял": 1538,
      "посе": 1539,
      "мель": 1540,
      "крикнул": 1541,
      "кори": 1542,
      "обла": 1543,
      "говорят": 1544,
      "пил": 1545,
      "сквозь": 1546,
      "старо": 1547,
      "лично": 1548,
      "старик": 1549,
      "ренно": 1550,
      "близ": 1551,
      "дцать": 1552,
      "уг": 1553,
      "каж": 1554,
      "плать": 1555,
      "скажу": 1556,
      "жая": 1557,
      "язы": 1558,
      "настоя": 1559,
      "мел": 1560,
      "счастли": 1561,
      "дут": 1562,
      "мальчи": 1563,
      "улыбаясь": 1564,
      "сот": 1565,
      "вается": 1566,
      "петер": 1567,
      "странно": 1568,
      "непре": 1569,
      "едва": 1570,
      "лок": 1571,
      "нью": 1572,
      "господи": 1573,
      "вить": 1574,
      "серь": 1575,
      "народ": 1576,
      "собою": 1577,
      "гря": 1578,
      "кварти": 1579,
      "тую": 1580,
      "хлю": 1581,
      "петр": 1582,
      "мгнове": 1583,
      "зве": 1584,
      "ладо": 1585,
      "рила": 1586,
      "поль": 1587,
      "тите": 1588,
      "созна": 1589,
      "каким": 1590,
      "думаю": 1591,
      "сматри": 1592,
      "гене": 1593,
      "петербур": 1594,
      "проща": 1595,
      "лицу": 1596,
      "нео": 1597,
      "вале": 1598,
      "лицом": 1599,
      "встал": 1600,
      "голоса": 1601,
      "большои": 1602,
      "немного": 1603,
      "читал": 1604,
      "правля": 1605,
      "сделать": 1606,
      "одну": 1607,
      "тел": 1608,
      "меч": 1609,
      "нѣ": 1610,
      "наше": 1611,
      "которым": 1612,
      "бил": 1613,
      "крыль": 1614,
      "вку": 1615,
      "зал": 1616,
      "деть": 1617,
      "вѣ": 1618,
      "нена": 1619,
      "вопрос": 1620,
      "каждыи": 1621,
      "удивле": 1622,
      "гна": 1623,
      "проти": 1624,
      "оба": 1625,
      "ловна": 1626,
      "тала": 1627,
      "няя": 1628,
      "дѣ": 1629,
      "неве": 1630,
      "еле": 1631,
      "нару": 1632,
      "тур": 1633,
      "стоит": 1634,
      "бол": 1635,
      "пру": 1636,
      "винова": 1637,
      "чение": 1638,
      "трево": 1639,
      "ребе": 1640,
      "вероя": 1641,
      "проговорил": 1642,
      "глубо": 1643,
      "шта": 1644,
      "четыре": 1645,
      "двор": 1646,
      "люб": 1647,
      "нехлю": 1648,
      "лез": 1649,
      "показ": 1650,
      "ласко": 1651,
      "дит": 1652,
      "жили": 1653,
      "чке": 1654,
      "скор": 1655,
      "генерал": 1656,
      "граф": 1657,
      "обходи": 1658,
      "скаже": 1659,
      "тельныи": 1660,
      "комнаты": 1661,
      "цкии": 1662,
      "вила": 1663,
      "рука": 1664,
      "бира": 1665,
      "чувству": 1666,
      "подошел": 1667,
      "соба": 1668,
      "окна": 1669,
      "ющие": 1670,
      "отноше": 1671,
      "беспокои": 1672,
      "прият": 1673,
      "док": 1674,
      "ющих": 1675,
      "пры": 1676,
      "зави": 1677,
      "сут": 1678,
      "корот": 1679,
      "тора": 1680,
      "серьез": 1681,
      "дне": 1682,
      "чные": 1683,
      "наш": 1684,
      "жила": 1685,
      "сил": 1686,
      "испы": 1687,
      "душ": 1688,
      "находи": 1689,
      "вообще": 1690,
      "рот": 1691,
      "громко": 1692,
      "доста": 1693,
      "сила": 1694,
      "тяжело": 1695,
      "сра": 1696,
      "жением": 1697,
      "стом": 1698,
      "смотреть": 1699,
      "удиви": 1700,
      "бар": 1701,
      "щую": 1702,
      "далеко": 1703,
      "нож": 1704,
      "вечер": 1705,
      "поря": 1706,
      "вздох": 1707,
      "тельство": 1708,
      "лых": 1709,
      "вошел": 1710,
      "дыха": 1711,
      "вное": 1712,
      "несмотря": 1713,
      "такая": 1714,
      "сия": 1715,
      "памя": 1716,
      "нился": 1717,
      "тах": 1718,
      "француз": 1719,
      "кала": 1720,
      "дмитри": 1721,
      "окру": 1722,
      "чить": 1723,
      "рые": 1724,
      "твои": 1725,
      "сомне": 1726,
      "губы": 1727,
      "ваю": 1728,
      "жит": 1729,
      "впол": 1730,
      "знала": 1731,
      "схва": 1732,
      "наста": 1733,
      "год": 1734,
      "видимо": 1735,
      "шее": 1736,
      "хочет": 1737,
      "дти": 1738,
      "дож": 1739,
      "онъ": 1740,
      "пить": 1741,
      "солнце": 1742,
      "молчал": 1743,
      "месте": 1744,
      "понимаю": 1745,
      "низ": 1746,
      "жо": 1747,
      "молоды": 1748,
      "минут": 1749,
      "серг": 1750,
      "поспе": 1751,
      "реше": 1752,
      "темно": 1753,
      "остановился": 1754,
      "сразу": 1755,
      "задум": 1756,
      "стан": 1757,
      "отво": 1758,
      "бормо": 1759,
      "назы": 1760,
      "потре": 1761,
      "доме": 1762,
      "глазах": 1763,
      "нюю": 1764,
      "призна": 1765,
      "осве": 1766,
      "вижу": 1767,
      "ужас": 1768,
      "счита": 1769,
      "веи": 1770,
      "самое": 1771,
      "друга": 1772,
      "других": 1773,
      "люблю": 1774,
      "господа": 1775,
      "глядел": 1776,
      "доса": 1777,
      "смеш": 1778,
      "иль": 1779,
      "оди": 1780,
      "гать": 1781,
      "ставить": 1782,
      "ощу": 1783,
      "приходи": 1784,
      "уче": 1785,
      "леи": 1786,
      "покои": 1787,
      "марья": 1788,
      "шать": 1789,
      "огром": 1790,
      "гах": 1791,
      "изви": 1792,
      "росси": 1793,
      "вовсе": 1794,
      "выми": 1795,
      "скло": 1796,
      "фигу": 1797,
      "руках": 1798,
      "болез": 1799,
      "поя": 1800,
      "тели": 1801,
      "неожида": 1802,
      "вшую": 1803,
      "жале": 1804,
      "стру": 1805,
      "дене": 1806,
      "смотрела": 1807,
      "случи": 1808,
      "ивановна": 1809,
      "гло": 1810,
      "многи": 1811,
      "раздра": 1812,
      "другу": 1813,
      "дья": 1814,
      "тое": 1815,
      "протя": 1816,
      "часа": 1817,
      "ежели": 1818,
      "гнул": 1819,
      "необходи": 1820,
      "сын": 1821,
      "скать": 1822,
      "разуме": 1823,
      "испол": 1824,
      "шко": 1825,
      "пого": 1826,
      "дево": 1827,
      "ору": 1828,
      "запи": 1829,
      "нич": 1830,
      "молодо": 1831,
      "вдо": 1832,
      "осторо": 1833,
      "красо": 1834,
      "известно": 1835,
      "нулись": 1836,
      "извест": 1837,
      "вероятно": 1838,
      "чо": 1839,
      "таких": 1840,
      "печат": 1841,
      "вшиися": 1842,
      "дая": 1843,
      "здо": 1844,
      "дался": 1845,
      "сади": 1846,
      "правле": 1847,
      "лан": 1848,
      "нимал": 1849,
      "ъез": 1850,
      "любви": 1851,
      "гои": 1852,
      "удоволь": 1853,
      "другие": 1854,
      "шина": 1855,
      "степа": 1856,
      "волосы": 1857,
      "скорее": 1858,
      "наши": 1859,
      "исче": 1860,
      "ющим": 1861,
      "свете": 1862,
      "варвара": 1863,
      "отчего": 1864,
      "дия": 1865,
      "груди": 1866,
      "дав": 1867,
      "пое": 1868,
      "коли": 1869,
      "зами": 1870,
      "тыми": 1871,
      "ности": 1872,
      "началь": 1873,
      "ворот": 1874,
      "шке": 1875,
      "мые": 1876,
      "ужасно": 1877,
      "воспо": 1878,
      "вина": 1879,
      "самои": 1880,
      "цати": 1881,
      "пору": 1882,
      "здоро": 1883,
      "идти": 1884,
      "своему": 1885,
      "красне": 1886,
      "сильно": 1887,
      "вольте": 1888,
      "улыбкои": 1889,
      "левин": 1890,
      "кровь": 1891,
      "вокруг": 1892,
      "деви": 1893,
      "ях": 1894,
      "ут": 1895,
      "руба": 1896,
      "решительно": 1897,
      "окон": 1898,
      "пришел": 1899,
      "пусть": 1900,
      "одним": 1901,
      "сред": 1902,
      "пример": 1903,
      "своими": 1904,
      "доктор": 1905,
      "зап": 1906,
      "поли": 1907,
      "согласи": 1908,
      "приве": 1909,
      "остро": 1910,
      "тили": 1911,
      "цов": 1912,
      "волю": 1913,
      "слезы": 1914,
      "офицер": 1915,
      "голова": 1916,
      "арка": 1917,
      "каби": 1918,
      "щение": 1919,
      "отчая": 1920,
      "щих": 1921,
      "дальше": 1922,
      "опусти": 1923,
      "треть": 1924,
      "небо": 1925,
      "лам": 1926,
      "щие": 1927,
      "смерти": 1928,
      "бѣ": 1929,
      "рома": 1930,
      "дии": 1931,
      "причи": 1932,
      "скому": 1933,
      "ехали": 1934,
      "алексе": 1935,
      "заговорил": 1936,
      "пти": 1937,
      "чами": 1938,
      "ждения": 1939,
      "такого": 1940,
      "гим": 1941,
      "куту": 1942,
      "востор": 1943,
      "вшее": 1944,
      "наташа": 1945,
      "тин": 1946,
      "спокоино": 1947,
      "бал": 1948,
      "господин": 1949,
      "ждал": 1950,
      "гар": 1951,
      "пля": 1952,
      "сл": 1953,
      "боже": 1954,
      "шен": 1955,
      "подоб": 1956,
      "ортру": 1957,
      "пот": 1958,
      "мною": 1959,
      "стыи": 1960,
      "рассу": 1961,
      "будут": 1962,
      "ление": 1963,
      "ловко": 1964,
      "забы": 1965,
      "проис": 1966,
      "мучи": 1967,
      "алексеи": 1968,
      "сделал": 1969,
      "пье": 1970,
      "чек": 1971,
      "надцать": 1972,
      "хотите": 1973,
      "страшно": 1974,
      "давыдов": 1975,
      "рад": 1976,
      "представля": 1977,
      "нскии": 1978,
      "покло": 1979,
      "чным": 1980,
      "посмотрел": 1981,
      "хотела": 1982,
      "зда": 1983,
      "тобои": 1984,
      "богу": 1985,
      "кур": 1986,
      "щения": 1987,
      "шум": 1988,
      "ити": 1989,
      "значи": 1990,
      "любопыт": 1991,
      "ответ": 1992,
      "грудь": 1993,
      "понял": 1994,
      "вери": 1995,
      "яков": 1996,
      "тилась": 1997,
      "понять": 1998,
      "всеи": 1999,
      "дное": 2000,
      "вслед": 2001,
      "бами": 2002,
      "батю": 2003,
      "образи": 2004,
      "ног": 2005,
      "бель": 2006,
      "князя": 2007,
      "взгляд": 2008,
      "кара": 2009,
      "тихон": 2010,
      "забо": 2011,
      "авто": 2012,
      "бед": 2013,
      "весьма": 2014,
      "глупо": 2015,
      "василь": 2016,
      "приез": 2017,
      "кле": 2018,
      "пали": 2019,
      "гов": 2020,
      "седа": 2021,
      "тен": 2022,
      "писал": 2023,
      "зако": 2024,
      "землю": 2025,
      "ува": 2026,
      "охот": 2027,
      "ставле": 2028,
      "живо": 2029,
      "чных": 2030,
      "любил": 2031,
      "увидел": 2032,
      "сок": 2033,
      "александ": 2034,
      "испуга": 2035,
      "иску": 2036,
      "нечего": 2037,
      "нности": 2038,
      "жки": 2039,
      "тень": 2040,
      "ления": 2041,
      "сооб": 2042,
      "случае": 2043,
      "прошло": 2044,
      "тельным": 2045,
      "нность": 2046,
      "дев": 2047,
      "нуло": 2048,
      "рых": 2049,
      "приказ": 2050,
      "огля": 2051,
      "казался": 2052,
      "вольно": 2053,
      "какую": 2054,
      "стола": 2055,
      "цин": 2056,
      "могли": 2057,
      "зри": 2058,
      "розо": 2059,
      "чии": 2060,
      "ющеи": 2061,
      "тороп": 2062,
      "чного": 2063,
      "дного": 2064,
      "зади": 2065,
      "сон": 2066,
      "стояла": 2067,
      "вою": 2068,
      "жку": 2069,
      "нке": 2070,
      "попа": 2071,
      "стые": 2072,
      "женщины": 2073,
      "солдат": 2074,
      "хочешь": 2075,
      "сына": 2076,
      "лка": 2077,
      "вшим": 2078,
      "ходили": 2079,
      "англи": 2080,
      "карма": 2081,
      "пиро": 2082,
      "наве": 2083,
      "помина": 2084,
      "лую": 2085,
      "ходила": 2086,
      "ствия": 2087,
      "оши": 2088,
      "тит": 2089,
      "ужели": 2090,
      "ого": 2091,
      "плы": 2092,
      "объясни": 2093,
      "столько": 2094,
      "утра": 2095,
      "замеча": 2096,
      "короле": 2097,
      "ночи": 2098,
      "выше": 2099,
      "вания": 2100,
      "лки": 2101,
      "ником": 2102,
      "другое": 2103,
      "дети": 2104,
      "жныи": 2105,
      "самыи": 2106,
      "вечером": 2107,
      "ждать": 2108,
      "смеялся": 2109,
      "печ": 2110,
      "служ": 2111,
      "минуты": 2112,
      "вна": 2113,
      "шала": 2114,
      "каме": 2115,
      "какого": 2116,
      "ющего": 2117,
      "накло": 2118,
      "пожалуиста": 2119,
      "ибо": 2120,
      "жив": 2121,
      "мых": 2122,
      "рали": 2123,
      "ция": 2124,
      "углу": 2125,
      "часов": 2126,
      "чок": 2127,
      "щим": 2128,
      "двадцать": 2129,
      "гали": 2130,
      "льно": 2131,
      "какъ": 2132,
      "трудно": 2133,
      "непременно": 2134,
      "ске": 2135,
      "показы": 2136,
      "бить": 2137,
      "головы": 2138,
      "строго": 2139,
      "холод": 2140,
      "даи": 2141,
      "жер": 2142,
      "поднял": 2143,
      "жем": 2144,
      "ступле": 2145,
      "жени": 2146,
      "бело": 2147,
      "образом": 2148,
      "един": 2149,
      "жар": 2150,
      "судь": 2151,
      "жным": 2152,
      "трех": 2153,
      "днеи": 2154,
      "катери": 2155,
      "старыи": 2156,
      "подле": 2157,
      "губер": 2158,
      "кти": 2159,
      "обя": 2160,
      "сад": 2161,
      "собстве": 2162,
      "ина": 2163,
      "пнин": 2164,
      "воды": 2165,
      "иди": 2166,
      "рался": 2167,
      "дон": 2168,
      "впечат": 2169,
      "мили": 2170,
      "внезап": 2171,
      "рубле": 2172,
      "просил": 2173,
      "неужели": 2174,
      "лужи": 2175,
      "жим": 2176,
      "разли": 2177,
      "поез": 2178,
      "положение": 2179,
      "чрезвы": 2180,
      "жные": 2181,
      "речь": 2182,
      "важно": 2183,
      "волне": 2184,
      "потеря": 2185,
      "покры": 2186,
      "никак": 2187,
      "вернулся": 2188,
      "страда": 2189,
      "земле": 2190,
      "опу": 2191,
      "должны": 2192,
      "лошадь": 2193,
      "васили": 2194,
      "музы": 2195,
      "слушал": 2196,
      "четвер": 2197,
      "петрович": 2198,
      "стая": 2199,
      "воскликнул": 2200,
      "прошу": 2201,
      "неприятно": 2202,
      "вере": 2203,
      "влю": 2204,
      "гну": 2205,
      "умер": 2206,
      "капи": 2207,
      "брать": 2208,
      "щал": 2209,
      "возбу": 2210,
      "дю": 2211,
      "мым": 2212,
      "гер": 2213,
      "степан": 2214,
      "речи": 2215,
      "ею": 2216,
      "тельное": 2217,
      "лошади": 2218,
      "утром": 2219,
      "откуда": 2220,
      "платье": 2221,
      "осторожно": 2222,
      "подро": 2223,
      "наталь": 2224,
      "очевидно": 2225,
      "любит": 2226,
      "арми": 2227,
      "стри": 2228,
      "пригла": 2229,
      "обяза": 2230,
      "показалось": 2231,
      "рачи": 2232,
      "одном": 2233,
      "бормотал": 2234,
      "ана": 2235,
      "запла": 2236,
      "ушел": 2237,
      "лип": 2238,
      "доло": 2239,
      "лежа": 2240,
      "жнои": 2241,
      "шек": 2242,
      "зли": 2243,
      "кула": 2244,
      "другого": 2245,
      "ново": 2246,
      "почувствовал": 2247,
      "никого": 2248,
      "лад": 2249,
      "заклю": 2250,
      "бори": 2251,
      "лыми": 2252,
      "слег": 2253,
      "рах": 2254,
      "зная": 2255,
      "удо": 2256,
      "тело": 2257,
      "чения": 2258,
      "дур": 2259,
      "ата": 2260,
      "нче": 2261,
      "нку": 2262,
      "заку": 2263,
      "имел": 2264,
      "тку": 2265,
      "жии": 2266,
      "алеша": 2267,
      "клу": 2268,
      "стояли": 2269,
      "торже": 2270,
      "шкои": 2271,
      "дым": 2272,
      "повторя": 2273,
      "узнал": 2274,
      "мас": 2275,
      "сапо": 2276,
      "ставил": 2277,
      "бежал": 2278,
      "приехал": 2279,
      "ич": 2280,
      "ростов": 2281,
      "дороги": 2282,
      "щее": 2283,
      "пари": 2284,
      "неподви": 2285,
      "голове": 2286,
      "писать": 2287,
      "барыш": 2288,
      "людя": 2289,
      "полно": 2290,
      "лошадеи": 2291,
      "ими": 2292,
      "шься": 2293,
      "нежно": 2294,
      "мого": 2295,
      "пера": 2296,
      "мов": 2297,
      "жены": 2298,
      "полови": 2299,
      "душно": 2300,
      "тельнои": 2301,
      "передонов": 2302,
      "ума": 2303,
      "приме": 2304,
      "прислу": 2305,
      "успокои": 2306,
      "време": 2307,
      "улыбнулся": 2308,
      "детеи": 2309,
      "слегка": 2310,
      "къ": 2311,
      "фро": 2312,
      "нос": 2313,
      "уте": 2314,
      "необыкнове": 2315,
      "защи": 2316,
      "пел": 2317,
      "обре": 2318,
      "десять": 2319,
      "моих": 2320,
      "вышла": 2321,
      "крови": 2322,
      "уча": 2323,
      "явля": 2324,
      "кт": 2325,
      "скочил": 2326,
      "видите": 2327,
      "бом": 2328,
      "бря": 2329,
      "отправи": 2330,
      "окно": 2331,
      "проко": 2332,
      "цем": 2333,
      "карти": 2334,
      "прибавил": 2335,
      "ческои": 2336,
      "рень": 2337,
      "дости": 2338,
      "бывало": 2339,
      "графиня": 2340,
      "поля": 2341,
      "постоя": 2342,
      "иначе": 2343,
      "рию": 2344,
      "тера": 2345,
      "также": 2346,
      "узна": 2347,
      "чисто": 2348,
      "принима": 2349,
      "словом": 2350,
      "решил": 2351,
      "сна": 2352,
      "держал": 2353,
      "беспо": 2354,
      "княги": 2355,
      "секу": 2356,
      "стры": 2357,
      "дога": 2358,
      "шень": 2359,
      "акси": 2360,
      "вспы": 2361,
      "денег": 2362,
      "услы": 2363,
      "нику": 2364,
      "мужа": 2365,
      "вяз": 2366,
      "смерть": 2367,
      "аре": 2368,
      "нехлюдов": 2369,
      "коль": 2370,
      "вообра": 2371,
      "сце": 2372,
      "всякии": 2373,
      "ющее": 2374,
      "мент": 2375,
      "вырази": 2376,
      "дура": 2377,
      "ради": 2378,
      "обма": 2379,
      "нется": 2380,
      "слови": 2381,
      "роман": 2382,
      "харак": 2383,
      "каре": 2384,
      "тушка": 2385,
      "обраща": 2386,
      "усили": 2387,
      "рина": 2388,
      "мона": 2389,
      "профе": 2390,
      "чен": 2391,
      "вспомнил": 2392,
      "жесто": 2393,
      "праз": 2394,
      "нях": 2395,
      "казаки": 2396,
      "городе": 2397,
      "площа": 2398,
      "опре": 2399,
      "ваш": 2400,
      "дея": 2401,
      "плохо": 2402,
      "случаи": 2403,
      "воспомина": 2404,
      "дливо": 2405,
      "сидела": 2406,
      "лежал": 2407,
      "прибли": 2408,
      "теи": 2409,
      "измени": 2410,
      "рала": 2411,
      "села": 2412,
      "будем": 2413,
      "гари": 2414,
      "крепко": 2415,
      "нашего": 2416,
      "поми": 2417,
      "кать": 2418,
      "дает": 2419,
      "разо": 2420,
      "щик": 2421,
      "разумеется": 2422,
      "огляды": 2423,
      "руке": 2424,
      "казать": 2425,
      "тились": 2426,
      "гаи": 2427,
      "напротив": 2428,
      "пах": 2429,
      "конце": 2430,
      "пово": 2431,
      "пожи": 2432,
      "каждо": 2433,
      "нуться": 2434,
      "уз": 2435,
      "рами": 2436,
      "нынче": 2437,
      "бин": 2438,
      "цию": 2439,
      "видишь": 2440,
      "елена": 2441,
      "наз": 2442,
      "соеди": 2443,
      "красно": 2444,
      "вшиеся": 2445,
      "вечера": 2446,
      "присут": 2447,
      "генер": 2448,
      "бля": 2449,
      "жеи": 2450,
      "ниях": 2451,
      "чкои": 2452,
      "черт": 2453,
      "нина": 2454,
      "отра": 2455,
      "столе": 2456,
      "чаино": 2457,
      "нному": 2458,
      "чувства": 2459,
      "ногу": 2460,
      "шин": 2461,
      "зубы": 2462,
      "пошла": 2463,
      "рях": 2464,
      "самгина": 2465,
      "вместо": 2466,
      "тъ": 2467,
      "исти": 2468,
      "поры": 2469,
      "трен": 2470,
      "итесь": 2471,
      "вае": 2472,
      "поидем": 2473,
      "рук": 2474,
      "нау": 2475,
      "цвет": 2476,
      "эк": 2477,
      "брата": 2478,
      "надобно": 2479,
      "цом": 2480,
      "торопливо": 2481,
      "горь": 2482,
      "двое": 2483,
      "осталь": 2484,
      "города": 2485,
      "вание": 2486,
      "мую": 2487,
      "сидя": 2488,
      "переди": 2489,
      "сторон": 2490,
      "уро": 2491,
      "воли": 2492,
      "глав": 2493,
      "блестя": 2494,
      "мерт": 2495,
      "плю": 2496,
      "маргари": 2497,
      "нали": 2498,
      "видела": 2499,
      "кин": 2500,
      "моему": 2501,
      "обратился": 2502,
      "получи": 2503,
      "револю": 2504,
      "сначала": 2505,
      "мака": 2506,
      "зла": 2507,
      "наблю": 2508,
      "стать": 2509,
      "оскор": 2510,
      "успел": 2511,
      "нут": 2512,
      "говорите": 2513,
      "тимо": 2514,
      "возле": 2515,
      "фома": 2516,
      "позвольте": 2517,
      "гне": 2518,
      "хал": 2519,
      "всеми": 2520,
      "возра": 2521,
      "поцело": 2522,
      "коля": 2523,
      "сея": 2524,
      "отда": 2525,
      "стье": 2526,
      "полков": 2527,
      "счасти": 2528,
      "рва": 2529,
      "гуля": 2530,
      "дороге": 2531,
      "сердца": 2532,
      "ночью": 2533,
      "случилось": 2534,
      "чество": 2535,
      "главное": 2536,
      "намере": 2537,
      "дама": 2538,
      "вниз": 2539,
      "прокофь": 2540,
      "несе": 2541,
      "дорогу": 2542,
      "секун": 2543,
      "лист": 2544,
      "хода": 2545,
      "требо": 2546,
      "раза": 2547,
      "проку": 2548,
      "живу": 2549,
      "выражение": 2550,
      "ехала": 2551,
      "повторил": 2552,
      "усмех": 2553,
      "яс": 2554,
      "сердито": 2555,
      "силы": 2556,
      "соня": 2557,
      "невозможно": 2558,
      "взглядом": 2559,
      "любез": 2560,
      "ногами": 2561,
      "отвечала": 2562,
      "тою": 2563,
      "спосо": 2564,
      "вспомина": 2565,
      "тихонь": 2566,
      "мѣ": 2567,
      "душу": 2568,
      "уста": 2569,
      "дочь": 2570,
      "моли": 2571,
      "нди": 2572,
      "доче": 2573,
      "бок": 2574,
      "щен": 2575,
      "должна": 2576,
      "мальчик": 2577,
      "настась": 2578,
      "батюшка": 2579,
      "занима": 2580,
      "бывает": 2581,
      "вшихся": 2582,
      "гимна": 2583,
      "улице": 2584,
      "милыи": 2585,
      "твердо": 2586,
      "тельства": 2587,
      "молчали": 2588,
      "зерк": 2589,
      "семе": 2590,
      "чаю": 2591,
      "ниями": 2592,
      "скажите": 2593,
      "варе": 2594,
      "рью": 2595,
      "федоро": 2596,
      "коридо": 2597,
      "кух": 2598,
      "шить": 2599,
      "ствен": 2600,
      "раньше": 2601,
      "нила": 2602,
      "душа": 2603,
      "столу": 2604,
      "били": 2605,
      "угол": 2606,
      "вшими": 2607,
      "тысяч": 2608,
      "необходимо": 2609,
      "зно": 2610,
      "нца": 2611,
      "сосед": 2612,
      "избе": 2613,
      "вор": 2614,
      "дется": 2615,
      "существо": 2616,
      "пошли": 2617,
      "ните": 2618,
      "ствии": 2619,
      "невольно": 2620,
      "взглянул": 2621,
      "чие": 2622,
      "наме": 2623,
      "нашел": 2624,
      "несчаст": 2625,
      "степе": 2626,
      "другим": 2627,
      "това": 2628,
      "расколь": 2629,
      "прохо": 2630,
      "сухо": 2631,
      "вполне": 2632,
      "хла": 2633,
      "непри": 2634,
      "отли": 2635,
      "шил": 2636,
      "холодно": 2637,
      "шею": 2638,
      "дуня": 2639,
      "дри": 2640,
      "навер": 2641,
      "прос": 2642,
      "кем": 2643,
      "тела": 2644,
      "думы": 2645,
      "например": 2646,
      "ствием": 2647,
      "тныи": 2648,
      "последнии": 2649,
      "семеи": 2650,
      "нял": 2651,
      "пара": 2652,
      "лицы": 2653,
      "мужчи": 2654,
      "блу": 2655,
      "чное": 2656,
      "живет": 2657,
      "газе": 2658,
      "жаи": 2659,
      "рье": 2660,
      "земли": 2661,
      "чная": 2662,
      "мъ": 2663,
      "цар": 2664,
      "рин": 2665,
      "зато": 2666,
      "спать": 2667,
      "команди": 2668,
      "поспешно": 2669,
      "звон": 2670,
      "собра": 2671,
      "куп": 2672,
      "справе": 2673,
      "деля": 2674,
      "одни": 2675,
      "свида": 2676,
      "сва": 2677,
      "узнать": 2678,
      "хуже": 2679,
      "дива": 2680,
      "другую": 2681,
      "женныи": 2682,
      "помню": 2683,
      "профессо": 2684,
      "пли": 2685,
      "таль": 2686,
      "всему": 2687,
      "превос": 2688,
      "следо": 2689,
      "убии": 2690,
      "ям": 2691,
      "закричал": 2692,
      "ктор": 2693,
      "образо": 2694,
      "ат": 2695,
      "каких": 2696,
      "моро": 2697,
      "чест": 2698,
      "могло": 2699,
      "имя": 2700,
      "возрази": 2701,
      "правду": 2702,
      "вести": 2703,
      "заба": 2704,
      "лова": 2705,
      "валь": 2706,
      "другом": 2707,
      "россии": 2708,
      "спрашивал": 2709,
      "редко": 2710,
      "ждение": 2711,
      "желая": 2712,
      "ответила": 2713,
      "впереди": 2714,
      "часы": 2715,
      "однажды": 2716,
      "десяти": 2717,
      "виз": 2718,
      "пыль": 2719,
      "нежда": 2720,
      "веле": 2721,
      "ветер": 2722,
      "вашего": 2723,
      "оттого": 2724,
      "рого": 2725,
      "вода": 2726,
      "лек": 2727,
      "лиш": 2728,
      "мил": 2729,
      "мок": 2730,
      "приш": 2731,
      "поднима": 2732,
      "знаком": 2733,
      "вшему": 2734,
      "готов": 2735,
      "зии": 2736,
      "нец": 2737,
      "воспи": 2738,
      "внимательно": 2739,
      "прошел": 2740,
      "жие": 2741,
      "чрезвычаино": 2742,
      "зра": 2743,
      "спаси": 2744,
      "проводи": 2745,
      "дила": 2746,
      "серьезно": 2747,
      "зали": 2748,
      "секре": 2749,
      "всту": 2750,
      "етесь": 2751,
      "ласково": 2752,
      "рублеи": 2753,
      "дки": 2754,
      "нашеи": 2755,
      "ваши": 2756,
      "прокля": 2757,
      "назна": 2758,
      "ортруда": 2759,
      "дени": 2760,
      "мире": 2761,
      "нями": 2762,
      "пяти": 2763,
      "видя": 2764,
      "стати": 2765,
      "разговари": 2766,
      "взо": 2767,
      "году": 2768,
      "тащи": 2769,
      "обстоя": 2770,
      "говор": 2771,
      "продолжала": 2772,
      "собственно": 2773,
      "шали": 2774,
      "ниц": 2775,
      "хохот": 2776,
      "ничто": 2777,
      "казаков": 2778,
      "клады": 2779,
      "сообщи": 2780,
      "зво": 2781,
      "ген": 2782,
      "вяза": 2783,
      "читать": 2784,
      "ческие": 2785,
      "хала": 2786,
      "кругом": 2787,
      "дря": 2788,
      "напря": 2789,
      "тельного": 2790,
      "лку": 2791,
      "либо": 2792,
      "прие": 2793,
      "пригото": 2794,
      "слушать": 2795,
      "девушка": 2796,
      "навли": 2797,
      "ково": 2798,
      "никакого": 2799,
      "словами": 2800,
      "высоко": 2801,
      "рился": 2802,
      "тихи": 2803,
      "целу": 2804,
      "ближе": 2805,
      "устрои": 2806,
      "появи": 2807,
      "мама": 2808,
      "крест": 2809,
      "тывал": 2810,
      "человеком": 2811,
      "александро": 2812,
      "мери": 2813,
      "ческого": 2814,
      "чинов": 2815,
      "держать": 2816,
      "ели": 2817,
      "рам": 2818,
      "зада": 2819,
      "нели": 2820,
      "гам": 2821,
      "крик": 2822,
      "беспре": 2823,
      "указы": 2824,
      "шап": 2825,
      "уез": 2826,
      "нек": 2827,
      "взять": 2828,
      "поднялся": 2829,
      "уверенно": 2830,
      "краинеи": 2831,
      "дар": 2832,
      "хол": 2833,
      "глухо": 2834,
      "жался": 2835,
      "разно": 2836,
      "пуска": 2837,
      "черно": 2838,
      "бросил": 2839,
      "оль": 2840,
      "таин": 2841,
      "скочи": 2842,
      "маме": 2843,
      "угрю": 2844,
      "досто": 2845,
      "гивая": 2846,
      "крова": 2847,
      "могут": 2848,
      "вашеи": 2849,
      "папиро": 2850,
      "база": 2851,
      "круп": 2852,
      "вещи": 2853,
      "мите": 2854,
      "телем": 2855,
      "ад": 2856,
      "митя": 2857,
      "соло": 2858,
      "ческих": 2859,
      "честь": 2860,
      "скал": 2861,
      "послыш": 2862,
      "фель": 2863,
      "зер": 2864,
      "пальцами": 2865,
      "дан": 2866,
      "выс": 2867,
      "угодно": 2868,
      "петербург": 2869,
      "сс": 2870,
      "ческии": 2871,
      "блед": 2872,
      "последнее": 2873,
      "заи": 2874,
      "изум": 2875,
      "щем": 2876,
      "неме": 2877,
      "нечто": 2878,
      "часть": 2879,
      "дрожа": 2880,
      "постели": 2881,
      "здра": 2882,
      "гос": 2883,
      "стен": 2884,
      "княжна": 2885,
      "видит": 2886,
      "единстве": 2887,
      "пови": 2888,
      "забыл": 2889,
      "став": 2890,
      "жает": 2891,
      "чувствовала": 2892,
      "счастье": 2893,
      "вшегося": 2894,
      "следует": 2895,
      "девя": 2896,
      "женно": 2897,
      "радостно": 2898,
      "одино": 2899,
      "огонь": 2900,
      "смысле": 2901,
      "увле": 2902,
      "эх": 2903,
      "пеи": 2904,
      "столом": 2905,
      "дворе": 2906,
      "поиду": 2907,
      "бун": 2908,
      "слабо": 2909,
      "любить": 2910,
      "оконча": 2911,
      "искус": 2912,
      "жных": 2913,
      "кити": 2914,
      "притво": 2915,
      "стым": 2916,
      "смотрели": 2917,
      "щь": 2918,
      "которому": 2919,
      "стараясь": 2920,
      "гала": 2921,
      "нетерпе": 2922,
      "плечи": 2923,
      "заметно": 2924,
      "подробно": 2925,
      "совет": 2926,
      "раи": 2927,
      "видом": 2928,
      "мить": 2929,
      "пута": 2930,
      "тали": 2931,
      "наших": 2932,
      "сова": 2933,
      "пустил": 2934,
      "опасно": 2935,
      "гиб": 2936,
      "маленькии": 2937,
      "распоря": 2938,
      "плечо": 2939,
      "работа": 2940,
      "приро": 2941,
      "обер": 2942,
      "десят": 2943,
      "коня": 2944,
      "вера": 2945,
      "чает": 2946,
      "изи": 2947,
      "тельные": 2948,
      "ешься": 2949,
      "ране": 2950,
      "руко": 2951,
      "полити": 2952,
      "кутузов": 2953,
      "сыпа": 2954,
      "вес": 2955,
      "такую": 2956,
      "жур": 2957,
      "черные": 2958,
      "франц": 2959,
      "лав": 2960,
      "числе": 2961,
      "бабу": 2962,
      "покор": 2963,
      "росто": 2964,
      "шер": 2965,
      "второи": 2966,
      "мон": 2967,
      "раздо": 2968,
      "света": 2969,
      "встречу": 2970,
      "откро": 2971,
      "можете": 2972,
      "миро": 2973,
      "слез": 2974,
      "первые": 2975,
      "выстре": 2976,
      "думаешь": 2977,
      "товарищ": 2978,
      "неожиданно": 2979,
      "утро": 2980,
      "поту": 2981,
      "ваша": 2982,
      "отвер": 2983,
      "москве": 2984,
      "спаль": 2985,
      "шевели": 2986,
      "будешь": 2987,
      "редка": 2988,
      "фра": 2989,
      "укра": 2990,
      "изредка": 2991,
      "слад": 2992,
      "стреля": 2993,
      "хозяин": 2994,
      "напол": 2995,
      "тие": 2996,
      "любила": 2997,
      "петровна": 2998,
      "произнес": 2999
    },
    "merges": [
      [
        "т",
        "о"
      ],
      [
        "н",
        "а"
      ],
      [
        "н",
        "о"
      ],
      [
        "н",
        "е"
      ],
      [
        "п",
        "о"
      ],
      [
        "с",
        "т"
      ],
      [
        "к",
        "о"
      ],
      [
        "а",
        "л"
      ],
      [
        "г",
        "о"
      ],
      [
        "р",
        "о"
      ],
      [
        "к",
        "а"
      ],
      [
        "р",
        "а"
      ],
      [
        "н",
        "и"
      ],
      [
        "в",
        "о"
      ],
      [
        "р",
        "е"
      ],
      [
        "л",
        "о"
      ],
      [
        "л",
        "и"
      ],
      [
        "р",
        "и"
      ],
      [
        "л",
        "а"
      ],
      [
        "в",
        "е"
      ],
      [
        "т",
        "ь"
      ],
      [
        "в",
        "а"
      ],
      [
        "т",
        "е"
      ],
      [
        "з",
        "а"
      ],
      [
        "д",
        "е"
      ],
      [
        "д",
        "о"
      ],
      [
        "д",
        "а"
      ],
      [
        "л",
        "е"
      ],
      [
        "с",
        "е"
      ],
      [
        "м",
        "о"
      ],
      [
        "ж",
        "е"
      ],
      [
        "с",
        "я"
      ],
      [
        "м",
        "е"
      ],
      [
        "ч",
        "е"
      ],
      [
        "н",
        "ы"
      ],
      [
        "б",
        "ы"
      ],
      [
        "л",
        "ь"
      ],
      [
        "в",
        "и"
      ],
      [
        "м",
        "и"
      ],
      [
        "с",
        "ь"
      ],
      [
        "т",
        "а"
      ],
      [
        "ч",
        "то"
      ],
      [
        "к",
        "и"
      ],
      [
        "н",
        "у"
      ],
      [
        "р",
        "у"
      ],
      [
        "в",
        "ы"
      ],
      [
        "с",
        "о"
      ],
      [
        "т",
        "и"
      ],
      [
        "п",
        "ро"
      ],
      [
        "д",
        "и"
      ],
      [
        "о",
        "т"
      ],
      [
        "п",
        "е"
      ],
      [
        "о",
        "н"
      ],
      [
        "м",
        "а"
      ],
      [
        "б",
        "о"
      ],
      [
        "б",
        "е"
      ],
      [
        "ш",
        "е"
      ],
      [
        "м",
        "у"
      ],
      [
        "п",
        "ри"
      ],
      [
        "х",
        "о"
      ],
      [
        "к",
        "у"
      ],
      [
        "д",
        "у"
      ],
      [
        "н",
        "я"
      ],
      [
        "ч",
        "и"
      ],
      [
        "с",
        "а"
      ],
      [
        "ст",
        "а"
      ],
      [
        "с",
        "то"
      ],
      [
        "в",
        "се"
      ],
      [
        "ш",
        "и"
      ],
      [
        "с",
        "и"
      ],
      [
        "э",
        "то"
      ],
      [
        "ч",
        "а"
      ],
      [
        "л",
        "я"
      ],
      [
        "е",
        "го"
      ],
      [
        "ка",
        "к"
      ],
      [
        "ал",
        "а"
      ],
      [
        "и",
        "з"
      ],
      [
        "т",
        "ы"
      ],
      [
        "ра",
        "з"
      ],
      [
        "н",
        "но"
      ],
      [
        "р",
        "ы"
      ],
      [
        "с",
        "ка"
      ],
      [
        "л",
        "у"
      ],
      [
        "о",
        "б"
      ],
      [
        "ж",
        "и"
      ],
      [
        "н",
        "ь"
      ],
      [
        "ал",
        "и"
      ],
      [
        "щ",
        "е"
      ],
      [
        "п",
        "а"
      ],
      [
        "с",
        "ко"
      ],
      [
        "л",
        "ю"
      ],
      [
        "б",
        "у"
      ],
      [
        "ст",
        "и"
      ],
      [
        "т",
        "у"
      ],
      [
        "о",
        "на"
      ],
      [
        "р",
        "я"
      ],
      [
        "г",
        "а"
      ],
      [
        "по",
        "д"
      ],
      [
        "п",
        "ре"
      ],
      [
        "з",
        "на"
      ],
      [
        "е",
        "т"
      ],
      [
        "ни",
        "е"
      ],
      [
        "п",
        "и"
      ],
      [
        "ст",
        "ь"
      ],
      [
        "ш",
        "а"
      ],
      [
        "с",
        "во"
      ],
      [
        "л",
        "ся"
      ],
      [
        "м",
        "ы"
      ],
      [
        "г",
        "и"
      ],
      [
        "в",
        "ал"
      ],
      [
        "б",
        "а"
      ],
      [
        "го",
        "во"
      ],
      [
        "ве",
        "р"
      ],
      [
        "л",
        "ы"
      ],
      [
        "н",
        "ны"
      ],
      [
        "ц",
        "е"
      ],
      [
        "та",
        "к"
      ],
      [
        "г",
        "да"
      ],
      [
        "те",
        "ль"
      ],
      [
        "ра",
        "с"
      ],
      [
        "ска",
        "з"
      ],
      [
        "ко",
        "и"
      ],
      [
        "ко",
        "то"
      ],
      [
        "б",
        "и"
      ],
      [
        "е",
        "е"
      ],
      [
        "п",
        "у"
      ],
      [
        "пе",
        "ре"
      ],
      [
        "с",
        "у"
      ],
      [
        "в",
        "у"
      ],
      [
        "ж",
        "а"
      ],
      [
        "щ",
        "и"
      ],
      [
        "ль",
        "ко"
      ],
      [
        "г",
        "ла"
      ],
      [
        "д",
        "ру"
      ],
      [
        "ч",
        "у"
      ],
      [
        "г",
        "у"
      ],
      [
        "но",
        "и"
      ],
      [
        "ни",
        "я"
      ],
      [
        "бы",
        "ло"
      ],
      [
        "ц",
        "а"
      ],
      [
        "с",
        "ле"
      ],
      [
        "гово",
        "ри"
      ],
      [
        "ст",
        "е"
      ],
      [
        "с",
        "ки"
      ],
      [
        "д",
        "ы"
      ],
      [
        "ал",
        "о"
      ],
      [
        "р",
        "ь"
      ],
      [
        "ко",
        "м"
      ],
      [
        "м",
        "не"
      ],
      [
        "с",
        "к"
      ],
      [
        "п",
        "ра"
      ],
      [
        "ть",
        "ся"
      ],
      [
        "д",
        "ь"
      ],
      [
        "е",
        "и"
      ],
      [
        "ал",
        "ь"
      ],
      [
        "д",
        "но"
      ],
      [
        "с",
        "по"
      ],
      [
        "ш",
        "ь"
      ],
      [
        "ны",
        "и"
      ],
      [
        "в",
        "ст"
      ],
      [
        "ме",
        "ня"
      ],
      [
        "е",
        "му"
      ],
      [
        "к",
        "е"
      ],
      [
        "в",
        "ши"
      ],
      [
        "го",
        "ло"
      ],
      [
        "т",
        "ре"
      ],
      [
        "в",
        "з"
      ],
      [
        "во",
        "з"
      ],
      [
        "ко",
        "гда"
      ],
      [
        "ж",
        "но"
      ],
      [
        "с",
        "ло"
      ],
      [
        "х",
        "а"
      ],
      [
        "то",
        "лько"
      ],
      [
        "ва",
        "я"
      ],
      [
        "то",
        "м"
      ],
      [
        "с",
        "лу"
      ],
      [
        "б",
        "я"
      ],
      [
        "т",
        "ся"
      ],
      [
        "бы",
        "л"
      ],
      [
        "ла",
        "сь"
      ],
      [
        "на",
        "я"
      ],
      [
        "ал",
        "е"
      ],
      [
        "сказ",
        "ал"
      ],
      [
        "но",
        "го"
      ],
      [
        "е",
        "ще"
      ],
      [
        "и",
        "х"
      ],
      [
        "г",
        "ля"
      ],
      [
        "ни",
        "и"
      ],
      [
        "до",
        "л"
      ],
      [
        "м",
        "я"
      ],
      [
        "е",
        "м"
      ],
      [
        "ны",
        "е"
      ],
      [
        "у",
        "же"
      ],
      [
        "во",
        "т"
      ],
      [
        "че",
        "го"
      ],
      [
        "хо",
        "ди"
      ],
      [
        "ст",
        "ра"
      ],
      [
        "не",
        "и"
      ],
      [
        "с",
        "ме"
      ],
      [
        "с",
        "ли"
      ],
      [
        "ч",
        "но"
      ],
      [
        "ну",
        "л"
      ],
      [
        "ко",
        "в"
      ],
      [
        "во",
        "и"
      ],
      [
        "д",
        "я"
      ],
      [
        "че",
        "м"
      ],
      [
        "с",
        "ы"
      ],
      [
        "не",
        "го"
      ],
      [
        "ка",
        "з"
      ],
      [
        "ст",
        "у"
      ],
      [
        "не",
        "т"
      ],
      [
        "ше",
        "л"
      ],
      [
        "ны",
        "м"
      ],
      [
        "тель",
        "но"
      ],
      [
        "кото",
        "ры"
      ],
      [
        "бе",
        "з"
      ],
      [
        "де",
        "т"
      ],
      [
        "ст",
        "во"
      ],
      [
        "ро",
        "м"
      ],
      [
        "в",
        "но"
      ],
      [
        "бо",
        "ль"
      ],
      [
        "с",
        "мо"
      ],
      [
        "т",
        "я"
      ],
      [
        "ш",
        "у"
      ],
      [
        "ал",
        "ся"
      ],
      [
        "п",
        "я"
      ],
      [
        "не",
        "е"
      ],
      [
        "ло",
        "ве"
      ],
      [
        "де",
        "л"
      ],
      [
        "ва",
        "ть"
      ],
      [
        "де",
        "ла"
      ],
      [
        "ни",
        "м"
      ],
      [
        "про",
        "си"
      ],
      [
        "г",
        "ра"
      ],
      [
        "че",
        "лове"
      ],
      [
        "г",
        "е"
      ],
      [
        "ли",
        "сь"
      ],
      [
        "пре",
        "д"
      ],
      [
        "ро",
        "в"
      ],
      [
        "о",
        "ни"
      ],
      [
        "ны",
        "х"
      ],
      [
        "о",
        "че"
      ],
      [
        "к",
        "то"
      ],
      [
        "ж",
        "ал"
      ],
      [
        "п",
        "ы"
      ],
      [
        "о",
        "д"
      ],
      [
        "сто",
        "я"
      ],
      [
        "т",
        "ри"
      ],
      [
        "ф",
        "и"
      ],
      [
        "но",
        "в"
      ],
      [
        "д",
        "ля"
      ],
      [
        "а",
        "н"
      ],
      [
        "са",
        "м"
      ],
      [
        "ко",
        "н"
      ],
      [
        "ну",
        "ю"
      ],
      [
        "з",
        "о"
      ],
      [
        "мо",
        "и"
      ],
      [
        "в",
        "ре"
      ],
      [
        "те",
        "м"
      ],
      [
        "по",
        "л"
      ],
      [
        "че",
        "р"
      ],
      [
        "гла",
        "за"
      ],
      [
        "щ",
        "а"
      ],
      [
        "ст",
        "ве"
      ],
      [
        "ст",
        "ро"
      ],
      [
        "ли",
        "ц"
      ],
      [
        "те",
        "пе"
      ],
      [
        "в",
        "ле"
      ],
      [
        "тепе",
        "рь"
      ],
      [
        "в",
        "али"
      ],
      [
        "к",
        "ры"
      ],
      [
        "ч",
        "ал"
      ],
      [
        "и",
        "ли"
      ],
      [
        "с",
        "ве"
      ],
      [
        "пе",
        "р"
      ],
      [
        "бы",
        "ть"
      ],
      [
        "дру",
        "г"
      ],
      [
        "к",
        "ра"
      ],
      [
        "чу",
        "вст"
      ],
      [
        "оче",
        "нь"
      ],
      [
        "нны",
        "и"
      ],
      [
        "ю",
        "т"
      ],
      [
        "о",
        "ста"
      ],
      [
        "с",
        "но"
      ],
      [
        "ч",
        "ь"
      ],
      [
        "от",
        "ве"
      ],
      [
        "я",
        "сь"
      ],
      [
        "в",
        "ала"
      ],
      [
        "бы",
        "ла"
      ],
      [
        "з",
        "и"
      ],
      [
        "ло",
        "сь"
      ],
      [
        "по",
        "сле"
      ],
      [
        "ду",
        "м"
      ],
      [
        "то",
        "го"
      ],
      [
        "ц",
        "и"
      ],
      [
        "се",
        "бя"
      ],
      [
        "п",
        "ла"
      ],
      [
        "и",
        "с"
      ],
      [
        "се",
        "р"
      ],
      [
        "ш",
        "о"
      ],
      [
        "де",
        "р"
      ],
      [
        "э",
        "ти"
      ],
      [
        "т",
        "но"
      ],
      [
        "мо",
        "же"
      ],
      [
        "не",
        "м"
      ],
      [
        "з",
        "ы"
      ],
      [
        "п",
        "ле"
      ],
      [
        "ет",
        "ся"
      ],
      [
        "ни",
        "ма"
      ],
      [
        "же",
        "н"
      ],
      [
        "сво",
        "и"
      ],
      [
        "мо",
        "л"
      ],
      [
        "ре",
        "з"
      ],
      [
        "ст",
        "ы"
      ],
      [
        "да",
        "же"
      ],
      [
        "и",
        "ме"
      ],
      [
        "ди",
        "н"
      ],
      [
        "с",
        "ла"
      ],
      [
        "в",
        "я"
      ],
      [
        "ви",
        "ч"
      ],
      [
        "де",
        "и"
      ],
      [
        "б",
        "ра"
      ],
      [
        "к",
        "ру"
      ],
      [
        "ж",
        "у"
      ],
      [
        "ко",
        "го"
      ],
      [
        "к",
        "ре"
      ],
      [
        "ва",
        "с"
      ],
      [
        "с",
        "проси"
      ],
      [
        "б",
        "ро"
      ],
      [
        "к",
        "ри"
      ],
      [
        "до",
        "м"
      ],
      [
        "говори",
        "л"
      ],
      [
        "на",
        "д"
      ],
      [
        "ко",
        "е"
      ],
      [
        "е",
        "сли"
      ],
      [
        "ш",
        "ка"
      ],
      [
        "ало",
        "сь"
      ],
      [
        "х",
        "и"
      ],
      [
        "по",
        "ло"
      ],
      [
        "б",
        "ле"
      ],
      [
        "ва",
        "м"
      ],
      [
        "с",
        "лы"
      ],
      [
        "кото",
        "ро"
      ],
      [
        "хо",
        "ро"
      ],
      [
        "ки",
        "е"
      ],
      [
        "ки",
        "и"
      ],
      [
        "ка",
        "я"
      ],
      [
        "то",
        "му"
      ],
      [
        "ж",
        "де"
      ],
      [
        "что",
        "бы"
      ],
      [
        "ф",
        "е"
      ],
      [
        "во",
        "ль"
      ],
      [
        "пя",
        "ть"
      ],
      [
        "и",
        "ва"
      ],
      [
        "в",
        "ля"
      ],
      [
        "з",
        "я"
      ],
      [
        "г",
        "ру"
      ],
      [
        "до",
        "ро"
      ],
      [
        "за",
        "ме"
      ],
      [
        "т",
        "ро"
      ],
      [
        "г",
        "де"
      ],
      [
        "бы",
        "ли"
      ],
      [
        "ние",
        "м"
      ],
      [
        "к",
        "ня"
      ],
      [
        "е",
        "з"
      ],
      [
        "вы",
        "и"
      ],
      [
        "т",
        "ра"
      ],
      [
        "може",
        "т"
      ],
      [
        "з",
        "е"
      ],
      [
        "са",
        "мо"
      ],
      [
        "ча",
        "с"
      ],
      [
        "в",
        "друг"
      ],
      [
        "об",
        "ра"
      ],
      [
        "ти",
        "л"
      ],
      [
        "г",
        "лу"
      ],
      [
        "ка",
        "ми"
      ],
      [
        "е",
        "в"
      ],
      [
        "на",
        "до"
      ],
      [
        "ц",
        "ы"
      ],
      [
        "ж",
        "из"
      ],
      [
        "ко",
        "не"
      ],
      [
        "ни",
        "чего"
      ],
      [
        "в",
        "ше"
      ],
      [
        "пере",
        "д"
      ],
      [
        "те",
        "р"
      ],
      [
        "но",
        "м"
      ],
      [
        "та",
        "м"
      ],
      [
        "лиц",
        "о"
      ],
      [
        "к",
        "рас"
      ],
      [
        "сто",
        "ро"
      ],
      [
        "ско",
        "лько"
      ],
      [
        "ски",
        "и"
      ],
      [
        "у",
        "лы"
      ],
      [
        "ка",
        "за"
      ],
      [
        "сказ",
        "ала"
      ],
      [
        "се",
        "бе"
      ],
      [
        "т",
        "ру"
      ],
      [
        "нны",
        "е"
      ],
      [
        "х",
        "от"
      ],
      [
        "о",
        "дно"
      ],
      [
        "ту",
        "т"
      ],
      [
        "ст",
        "ви"
      ],
      [
        "ро",
        "д"
      ],
      [
        "де",
        "нь"
      ],
      [
        "и",
        "н"
      ],
      [
        "ю",
        "щи"
      ],
      [
        "ду",
        "ма"
      ],
      [
        "но",
        "е"
      ],
      [
        "ни",
        "х"
      ],
      [
        "смо",
        "тре"
      ],
      [
        "али",
        "сь"
      ],
      [
        "по",
        "до"
      ],
      [
        "ни",
        "к"
      ],
      [
        "д",
        "ва"
      ],
      [
        "к",
        "ро"
      ],
      [
        "б",
        "ла"
      ],
      [
        "ну",
        "лся"
      ],
      [
        "е",
        "те"
      ],
      [
        "нно",
        "и"
      ],
      [
        "все",
        "м"
      ],
      [
        "мо",
        "ло"
      ],
      [
        "ала",
        "сь"
      ],
      [
        "дру",
        "го"
      ],
      [
        "то",
        "т"
      ],
      [
        "с",
        "ку"
      ],
      [
        "ц",
        "у"
      ],
      [
        "мо",
        "г"
      ],
      [
        "это",
        "го"
      ],
      [
        "челове",
        "к"
      ],
      [
        "п",
        "ря"
      ],
      [
        "и",
        "те"
      ],
      [
        "у",
        "ж"
      ],
      [
        "бо",
        "ле"
      ],
      [
        "е",
        "сть"
      ],
      [
        "то",
        "л"
      ],
      [
        "вре",
        "мя"
      ],
      [
        "по",
        "том"
      ],
      [
        "бу",
        "дет"
      ],
      [
        "бу",
        "дь"
      ],
      [
        "ско",
        "и"
      ],
      [
        "д",
        "ал"
      ],
      [
        "и",
        "м"
      ],
      [
        "ло",
        "в"
      ],
      [
        "ска",
        "за"
      ],
      [
        "о",
        "р"
      ],
      [
        "ки",
        "м"
      ],
      [
        "с",
        "пе"
      ],
      [
        "лю",
        "би"
      ],
      [
        "ст",
        "ва"
      ],
      [
        "б",
        "ли"
      ],
      [
        "ми",
        "ну"
      ],
      [
        "ш",
        "ла"
      ],
      [
        "е",
        "шь"
      ],
      [
        "о",
        "пять"
      ],
      [
        "это",
        "т"
      ],
      [
        "хо",
        "те"
      ],
      [
        "чувст",
        "во"
      ],
      [
        "д",
        "ро"
      ],
      [
        "ме",
        "р"
      ],
      [
        "х",
        "у"
      ],
      [
        "по",
        "лу"
      ],
      [
        "бо",
        "и"
      ],
      [
        "но",
        "ви"
      ],
      [
        "ве",
        "дь"
      ],
      [
        "а",
        "р"
      ],
      [
        "п",
        "ь"
      ],
      [
        "по",
        "ч"
      ],
      [
        "в",
        "ся"
      ],
      [
        "мо",
        "жно"
      ],
      [
        "на",
        "с"
      ],
      [
        "н",
        "ю"
      ],
      [
        ",",
        "-"
      ],
      [
        "д",
        "ре"
      ],
      [
        "ну",
        "ла"
      ],
      [
        "ни",
        "ка"
      ],
      [
        "ве",
        "ли"
      ],
      [
        "р",
        "ю"
      ],
      [
        "те",
        "бя"
      ],
      [
        "то",
        "и"
      ],
      [
        "ком",
        "на"
      ],
      [
        "о",
        "дин"
      ],
      [
        "п",
        "ло"
      ],
      [
        "де",
        "ло"
      ],
      [
        "в",
        "то"
      ],
      [
        "од",
        "на"
      ],
      [
        "сть",
        "ю"
      ],
      [
        "те",
        "бе"
      ],
      [
        "ли",
        "во"
      ],
      [
        "вши",
        "сь"
      ],
      [
        "ка",
        "р"
      ],
      [
        "ги",
        "н"
      ],
      [
        "д",
        "ве"
      ],
      [
        "д",
        "ра"
      ],
      [
        "ско",
        "го"
      ],
      [
        "дум",
        "ал"
      ],
      [
        "о",
        "к"
      ],
      [
        "спроси",
        "л"
      ],
      [
        "нны",
        "м"
      ],
      [
        "с",
        "ю"
      ],
      [
        "ст",
        "ал"
      ],
      [
        "\"",
        ","
      ],
      [
        "о",
        "бе"
      ],
      [
        "ни",
        "будь"
      ],
      [
        "в",
        "ра"
      ],
      [
        "нно",
        "е"
      ],
      [
        "бла",
        "го"
      ],
      [
        "по",
        "тому"
      ],
      [
        "г",
        "ри"
      ],
      [
        "ле",
        "т"
      ],
      [
        "нны",
        "х"
      ],
      [
        "то",
        "же"
      ],
      [
        "ки",
        "х"
      ],
      [
        "к",
        "ла"
      ],
      [
        "ж",
        "да"
      ],
      [
        "бу",
        "д"
      ],
      [
        "сло",
        "ва"
      ],
      [
        "з",
        "ь"
      ],
      [
        "се",
        "и"
      ],
      [
        "т",
        "во"
      ],
      [
        "на",
        "ч"
      ],
      [
        "м",
        "ни"
      ],
      [
        "щ",
        "у"
      ],
      [
        "ра",
        "н"
      ],
      [
        "к",
        "ли"
      ],
      [
        "ны",
        "ми"
      ],
      [
        "вал",
        "ся"
      ],
      [
        "д",
        "во"
      ],
      [
        "ст",
        "ре"
      ],
      [
        "сто",
        "и"
      ],
      [
        "т",
        "ал"
      ],
      [
        "ви",
        "л"
      ],
      [
        "ма",
        "н"
      ],
      [
        "че",
        "т"
      ],
      [
        "вз",
        "гля"
      ],
      [
        "ри",
        "и"
      ],
      [
        "с",
        "ча"
      ],
      [
        "об",
        "раз"
      ],
      [
        "при",
        "я"
      ],
      [
        "е",
        "х"
      ],
      [
        "улы",
        "б"
      ],
      [
        "го",
        "р"
      ],
      [
        "буд",
        "то"
      ],
      [
        "по",
        "з"
      ],
      [
        "ни",
        "ко"
      ],
      [
        "ви",
        "де"
      ],
      [
        "ва",
        "р"
      ],
      [
        "до",
        "в"
      ],
      [
        "д",
        "ня"
      ],
      [
        "ж",
        "ду"
      ],
      [
        "ст",
        "я"
      ],
      [
        "то",
        "гда"
      ],
      [
        "ка",
        "х"
      ],
      [
        "в",
        "ь"
      ],
      [
        "нно",
        "го"
      ],
      [
        "все",
        "х"
      ],
      [
        "але",
        "к"
      ],
      [
        "зна",
        "ю"
      ],
      [
        "з",
        "у"
      ],
      [
        "пра",
        "в"
      ],
      [
        "спо",
        "кои"
      ],
      [
        "которы",
        "и"
      ],
      [
        "ку",
        "да"
      ],
      [
        "все",
        "гда"
      ],
      [
        "х",
        "ва"
      ],
      [
        "то",
        "р"
      ],
      [
        "боль",
        "ше"
      ],
      [
        "ш",
        "ли"
      ],
      [
        "вши",
        "и"
      ],
      [
        "вал",
        "о"
      ],
      [
        "д",
        "ви"
      ],
      [
        "з",
        "ем"
      ],
      [
        "не",
        "сколько"
      ],
      [
        "но",
        "ве"
      ],
      [
        "у",
        "ме"
      ],
      [
        "ви",
        "ди"
      ],
      [
        "ти",
        "в"
      ],
      [
        "сказа",
        "ть"
      ],
      [
        "и",
        "но"
      ],
      [
        "сво",
        "еи"
      ],
      [
        "о",
        "жи"
      ],
      [
        "ф",
        "а"
      ],
      [
        "м",
        "ного"
      ],
      [
        "про",
        "дол"
      ],
      [
        "те",
        "ле"
      ],
      [
        "которы",
        "е"
      ],
      [
        "ш",
        "но"
      ],
      [
        "ма",
        "р"
      ],
      [
        "о",
        "со"
      ],
      [
        "ст",
        "но"
      ],
      [
        "с",
        "пи"
      ],
      [
        "ре",
        "ши"
      ],
      [
        "че",
        "рез"
      ],
      [
        "бе",
        "с"
      ],
      [
        "ле",
        "г"
      ],
      [
        "ру",
        "ки"
      ],
      [
        "боле",
        "е"
      ],
      [
        "ра",
        "я"
      ],
      [
        "со",
        "л"
      ],
      [
        "по",
        "и"
      ],
      [
        "по",
        "ня"
      ],
      [
        "вы",
        "м"
      ],
      [
        "че",
        "му"
      ],
      [
        "то",
        "чно"
      ],
      [
        "ве",
        "се"
      ],
      [
        "си",
        "ль"
      ],
      [
        "это",
        "м"
      ],
      [
        "г",
        "ро"
      ],
      [
        "то",
        "в"
      ],
      [
        "на",
        "м"
      ],
      [
        "во",
        "ро"
      ],
      [
        "до",
        "воль"
      ],
      [
        "ш",
        "ки"
      ],
      [
        "н",
        "ная"
      ],
      [
        "ка",
        "кои"
      ],
      [
        "поч",
        "ти"
      ],
      [
        "ша",
        "я"
      ],
      [
        "ну",
        "в"
      ],
      [
        "со",
        "м"
      ],
      [
        "лю",
        "бо"
      ],
      [
        "же",
        "ние"
      ],
      [
        "з",
        "де"
      ],
      [
        "го",
        "спо"
      ],
      [
        "по",
        "р"
      ],
      [
        "вст",
        "ре"
      ],
      [
        "ве",
        "т"
      ],
      [
        "сво",
        "ю"
      ],
      [
        "каз",
        "алось"
      ],
      [
        "вз",
        "я"
      ],
      [
        "бу",
        "ду"
      ],
      [
        "коне",
        "ц"
      ],
      [
        "со",
        "вер"
      ],
      [
        "ру",
        "ку"
      ],
      [
        "к",
        "нул"
      ],
      [
        "у",
        "м"
      ],
      [
        "до",
        "и"
      ],
      [
        "лу",
        "ч"
      ],
      [
        "жен",
        "щи"
      ],
      [
        "ва",
        "ри"
      ],
      [
        "вы",
        "е"
      ],
      [
        "сер",
        "д"
      ],
      [
        "ни",
        "ю"
      ],
      [
        "пу",
        "сти"
      ],
      [
        "хоро",
        "шо"
      ],
      [
        "ты",
        "и"
      ],
      [
        "ч",
        "ка"
      ],
      [
        "с",
        "ни"
      ],
      [
        "под",
        "ня"
      ],
      [
        "в",
        "ла"
      ],
      [
        "да",
        "ть"
      ],
      [
        "о",
        "бо"
      ],
      [
        "с",
        "пра"
      ],
      [
        "по",
        "ка"
      ],
      [
        "п",
        "аль"
      ],
      [
        "ва",
        "ет"
      ],
      [
        "э",
        "та"
      ],
      [
        "сам",
        "гин"
      ],
      [
        "ме",
        "ни"
      ],
      [
        "слы",
        "ш"
      ],
      [
        "ви",
        "дел"
      ],
      [
        "не",
        "му"
      ],
      [
        "во",
        "л"
      ],
      [
        "ъ",
        "я"
      ],
      [
        "ко",
        "ро"
      ],
      [
        "ри",
        "л"
      ],
      [
        "ко",
        "ле"
      ],
      [
        "об",
        "ще"
      ],
      [
        "о",
        "бы"
      ],
      [
        "хот",
        "я"
      ],
      [
        "ку",
        "ю"
      ],
      [
        "ме",
        "жду"
      ],
      [
        "ч",
        "ки"
      ],
      [
        "из",
        "ве"
      ],
      [
        "н",
        "т"
      ],
      [
        "ста",
        "ри"
      ],
      [
        "в",
        "ме"
      ],
      [
        "р",
        "ал"
      ],
      [
        "во",
        "ло"
      ],
      [
        "мо",
        "гу"
      ],
      [
        "гри",
        "го"
      ],
      [
        "голо",
        "ву"
      ],
      [
        "к",
        "ло"
      ],
      [
        "лю",
        "ди"
      ],
      [
        "но",
        "ва"
      ],
      [
        "после",
        "д"
      ],
      [
        "дол",
        "го"
      ],
      [
        "кня",
        "зь"
      ],
      [
        "ше",
        "и"
      ],
      [
        "ве",
        "сь"
      ],
      [
        "вы",
        "х"
      ],
      [
        "ко",
        "ло"
      ],
      [
        "ста",
        "ви"
      ],
      [
        "о",
        "ст"
      ],
      [
        "говори",
        "ть"
      ],
      [
        "что",
        "б"
      ],
      [
        "пра",
        "ви"
      ],
      [
        "совер",
        "ше"
      ],
      [
        "зна",
        "л"
      ],
      [
        "с",
        "ре"
      ],
      [
        "у",
        "ди"
      ],
      [
        "со",
        "в"
      ],
      [
        "ма",
        "ть"
      ],
      [
        "ф",
        "о"
      ],
      [
        "лы",
        "и"
      ],
      [
        "ж",
        "ала"
      ],
      [
        "сво",
        "е"
      ],
      [
        "на",
        "конец"
      ],
      [
        "дру",
        "ги"
      ],
      [
        "но",
        "ги"
      ],
      [
        "ан",
        "дре"
      ],
      [
        "чи",
        "та"
      ],
      [
        "вер",
        "ь"
      ],
      [
        "че",
        "ски"
      ],
      [
        "со",
        "всем"
      ],
      [
        "жи",
        "ть"
      ],
      [
        "лю",
        "деи"
      ],
      [
        "ра",
        "до"
      ],
      [
        "о",
        "те"
      ],
      [
        "чи",
        "т"
      ],
      [
        "ло",
        "м"
      ],
      [
        "б",
        "но"
      ],
      [
        "про",
        "сто"
      ],
      [
        "сеи",
        "час"
      ],
      [
        "во",
        "е"
      ],
      [
        "жиз",
        "нь"
      ],
      [
        "т",
        "ря"
      ],
      [
        "по",
        "нима"
      ],
      [
        "же",
        "ла"
      ],
      [
        "вая",
        "сь"
      ],
      [
        "пе",
        "т"
      ],
      [
        "ж",
        "ды"
      ],
      [
        "ко",
        "р"
      ],
      [
        "друго",
        "и"
      ],
      [
        "зде",
        "сь"
      ],
      [
        "до",
        "ма"
      ],
      [
        "жиз",
        "ни"
      ],
      [
        "ц",
        "о"
      ],
      [
        "у",
        "жа"
      ],
      [
        "де",
        "ре"
      ],
      [
        "жи",
        "л"
      ],
      [
        "осо",
        "бе"
      ],
      [
        "ни",
        "когда"
      ],
      [
        "ву",
        "ю"
      ],
      [
        "ли",
        "ца"
      ],
      [
        "ну",
        "ть"
      ],
      [
        "вы",
        "со"
      ],
      [
        "ф",
        "ран"
      ],
      [
        "г",
        "ром"
      ],
      [
        "те",
        "ри"
      ],
      [
        "д",
        "али"
      ],
      [
        "говори",
        "ла"
      ],
      [
        "г",
        "ре"
      ],
      [
        "дела",
        "ть"
      ],
      [
        "са",
        "ми"
      ],
      [
        "з",
        "ло"
      ],
      [
        "это",
        "и"
      ],
      [
        "м",
        "але"
      ],
      [
        "слу",
        "ча"
      ],
      [
        "с",
        "ви"
      ],
      [
        "об",
        "ъя"
      ],
      [
        "у",
        "ве"
      ],
      [
        "но",
        "си"
      ],
      [
        "все",
        "го"
      ],
      [
        "е",
        "р"
      ],
      [
        "п",
        "ал"
      ],
      [
        "сво",
        "его"
      ],
      [
        "с",
        "вя"
      ],
      [
        "про",
        "тив"
      ],
      [
        "каз",
        "ы"
      ],
      [
        "ст",
        "ало"
      ],
      [
        "в",
        "спо"
      ],
      [
        "хо",
        "зя"
      ],
      [
        "ло",
        "ша"
      ],
      [
        "к",
        "ни"
      ],
      [
        "ше",
        "го"
      ],
      [
        "д",
        "ли"
      ],
      [
        "мале",
        "нь"
      ],
      [
        "во",
        "ди"
      ],
      [
        "пи",
        "сь"
      ],
      [
        "оста",
        "нови"
      ],
      [
        "та",
        "кои"
      ],
      [
        "у",
        "би"
      ],
      [
        "сме",
        "р"
      ],
      [
        "у",
        "и"
      ],
      [
        "ти",
        "хо"
      ],
      [
        "по",
        "чему"
      ],
      [
        "да",
        "вно"
      ],
      [
        "ми",
        "на"
      ],
      [
        "же",
        "ния"
      ],
      [
        "ва",
        "ться"
      ],
      [
        "ска",
        "я"
      ],
      [
        "нико",
        "ла"
      ],
      [
        "ч",
        "ала"
      ],
      [
        "де",
        "м"
      ],
      [
        "во",
        "м"
      ],
      [
        "во",
        "про"
      ],
      [
        "го",
        "ро"
      ],
      [
        "хо",
        "ло"
      ],
      [
        "н",
        "ную"
      ],
      [
        "со",
        "б"
      ],
      [
        "чи",
        "л"
      ],
      [
        "ш",
        "ло"
      ],
      [
        "де",
        "ле"
      ],
      [
        "ру",
        "с"
      ],
      [
        "луч",
        "ше"
      ],
      [
        "э",
        "ту"
      ],
      [
        "сно",
        "ва"
      ],
      [
        "мол",
        "ча"
      ],
      [
        "ка",
        "же"
      ],
      [
        "от",
        "кры"
      ],
      [
        "ю",
        "сь"
      ],
      [
        "стве",
        "нно"
      ],
      [
        "де",
        "ся"
      ],
      [
        "па",
        "н"
      ],
      [
        "пи",
        "са"
      ],
      [
        "не",
        "ль"
      ],
      [
        "щ",
        "его"
      ],
      [
        "зна",
        "ко"
      ],
      [
        "ю",
        "ще"
      ],
      [
        "са",
        "мы"
      ],
      [
        "говори",
        "т"
      ],
      [
        "ех",
        "ал"
      ],
      [
        "ну",
        "лась"
      ],
      [
        "смотре",
        "л"
      ],
      [
        "с",
        "па"
      ],
      [
        "све",
        "т"
      ],
      [
        "голо",
        "с"
      ],
      [
        "в",
        "ъ"
      ],
      [
        "во",
        "го"
      ],
      [
        "д",
        "верь"
      ],
      [
        "мо",
        "е"
      ],
      [
        "соверше",
        "нно"
      ],
      [
        "ли",
        "це"
      ],
      [
        "н",
        "це"
      ],
      [
        "на",
        "де"
      ],
      [
        "че",
        "ра"
      ],
      [
        "до",
        "б"
      ],
      [
        "раз",
        "гово"
      ],
      [
        "мину",
        "ту"
      ],
      [
        "тя",
        "же"
      ],
      [
        "вши",
        "е"
      ],
      [
        "ви",
        "д"
      ],
      [
        "оте",
        "ц"
      ],
      [
        "бы",
        "стро"
      ],
      [
        "раз",
        "и"
      ],
      [
        "глаза",
        "ми"
      ],
      [
        "челове",
        "ка"
      ],
      [
        "хо",
        "дя"
      ],
      [
        "у",
        "го"
      ],
      [
        "слу",
        "ша"
      ],
      [
        "бро",
        "си"
      ],
      [
        "у",
        "да"
      ],
      [
        "по",
        "жал"
      ],
      [
        "за",
        "д"
      ],
      [
        "з",
        "ву"
      ],
      [
        "са",
        "н"
      ],
      [
        "дер",
        "жа"
      ],
      [
        "ча",
        "я"
      ],
      [
        "ви",
        "дно"
      ],
      [
        "бо",
        "га"
      ],
      [
        "но",
        "чь"
      ],
      [
        "ст",
        "ву"
      ],
      [
        "воз",
        "ь"
      ],
      [
        "му",
        "ж"
      ],
      [
        "ходи",
        "л"
      ],
      [
        "серд",
        "це"
      ],
      [
        "на",
        "и"
      ],
      [
        "бе",
        "р"
      ],
      [
        "в",
        "сю"
      ],
      [
        "о",
        "фи"
      ],
      [
        "де",
        "ли"
      ],
      [
        "в",
        "не"
      ],
      [
        "ви",
        "н"
      ],
      [
        "ско",
        "м"
      ],
      [
        "т",
        "вер"
      ],
      [
        "ски",
        "х"
      ],
      [
        "коне",
        "чно"
      ],
      [
        "тот",
        "час"
      ],
      [
        "ра",
        "бо"
      ],
      [
        "об",
        "и"
      ],
      [
        "ю",
        "тся"
      ],
      [
        "м",
        "аль"
      ],
      [
        "ч",
        "ку"
      ],
      [
        "у",
        "чи"
      ],
      [
        "а",
        "х"
      ],
      [
        "те",
        "ре"
      ],
      [
        "хоте",
        "л"
      ],
      [
        "с",
        "не"
      ],
      [
        "ру",
        "ю"
      ],
      [
        "за",
        "в"
      ],
      [
        "б",
        "лю"
      ],
      [
        "ста",
        "р"
      ],
      [
        "па",
        "р"
      ],
      [
        "нны",
        "ми"
      ],
      [
        "ве",
        "л"
      ],
      [
        "с",
        "му"
      ],
      [
        "рас",
        "сказ"
      ],
      [
        "но",
        "ю"
      ],
      [
        "нель",
        "зя"
      ],
      [
        "про",
        "из"
      ],
      [
        "ты",
        "е"
      ],
      [
        "раз",
        "у"
      ],
      [
        "во",
        "ск"
      ],
      [
        "д",
        "ву"
      ],
      [
        "кру",
        "г"
      ],
      [
        "ца",
        "ть"
      ],
      [
        "ни",
        "ков"
      ],
      [
        "спра",
        "ши"
      ],
      [
        "бо",
        "р"
      ],
      [
        "сча",
        "ст"
      ],
      [
        "по",
        "мни"
      ],
      [
        "ста",
        "вля"
      ],
      [
        "вши",
        "х"
      ],
      [
        "о",
        "но"
      ],
      [
        "по",
        "ле"
      ],
      [
        "боль",
        "шо"
      ],
      [
        "каже",
        "тся"
      ],
      [
        "нь",
        "ка"
      ],
      [
        "мо",
        "я"
      ],
      [
        "са",
        "ма"
      ],
      [
        "чувство",
        "вал"
      ],
      [
        "ну",
        "жно"
      ],
      [
        "бе",
        "ре"
      ],
      [
        "ши",
        "х"
      ],
      [
        "вше",
        "го"
      ],
      [
        "та",
        "ки"
      ],
      [
        "вы",
        "ра"
      ],
      [
        "чи",
        "к"
      ],
      [
        "та",
        "кое"
      ],
      [
        "гово",
        "ря"
      ],
      [
        "особе",
        "нно"
      ],
      [
        "ш",
        "ком"
      ],
      [
        "на",
        "ми"
      ],
      [
        "с",
        "дел"
      ],
      [
        "которо",
        "и"
      ],
      [
        "ме",
        "д"
      ],
      [
        "те",
        "ля"
      ],
      [
        "ожи",
        "да"
      ],
      [
        "при",
        "ня"
      ],
      [
        "го",
        "то"
      ],
      [
        "мы",
        "с"
      ],
      [
        "в",
        "ни"
      ],
      [
        "го",
        "м"
      ],
      [
        "ци",
        "и"
      ],
      [
        "ти",
        "лся"
      ],
      [
        "ти",
        "ла"
      ],
      [
        "григо",
        "рии"
      ],
      [
        "м",
        "ало"
      ],
      [
        "о",
        "де"
      ],
      [
        "ро",
        "и"
      ],
      [
        "ре",
        "н"
      ],
      [
        "офи",
        "це"
      ],
      [
        "хо",
        "ть"
      ],
      [
        "до",
        "ва"
      ],
      [
        "пы",
        "т"
      ],
      [
        "с",
        "си"
      ],
      [
        "вме",
        "сте"
      ],
      [
        "не",
        "до"
      ],
      [
        "шу",
        "ю"
      ],
      [
        "одна",
        "ко"
      ],
      [
        "но",
        "вич"
      ],
      [
        "ско",
        "ро"
      ],
      [
        "б",
        "от"
      ],
      [
        "д",
        "але"
      ],
      [
        "на",
        "х"
      ],
      [
        "та",
        "я"
      ],
      [
        "ни",
        "н"
      ],
      [
        "ски",
        "е"
      ],
      [
        "за",
        "чем"
      ],
      [
        "по",
        "вто"
      ],
      [
        "по",
        "хо"
      ],
      [
        ")",
        ","
      ],
      [
        "же",
        "л"
      ],
      [
        "то",
        "к"
      ],
      [
        "пря",
        "мо"
      ],
      [
        "ха",
        "и"
      ],
      [
        "сто",
        "л"
      ],
      [
        "ш",
        "ку"
      ],
      [
        "вала",
        "сь"
      ],
      [
        "ч",
        "али"
      ],
      [
        "т",
        "ю"
      ],
      [
        "ко",
        "ю"
      ],
      [
        "не",
        "с"
      ],
      [
        "пре",
        "жде"
      ],
      [
        "сме",
        "я"
      ],
      [
        "вали",
        "сь"
      ],
      [
        "су",
        "да"
      ],
      [
        "сво",
        "их"
      ],
      [
        "во",
        "с"
      ],
      [
        "зав",
        "тра"
      ],
      [
        "си",
        "ли"
      ],
      [
        "д",
        "аль"
      ],
      [
        "ско",
        "ль"
      ],
      [
        "б",
        "ри"
      ],
      [
        "не",
        "р"
      ],
      [
        "зна",
        "ть"
      ],
      [
        "г",
        "ал"
      ],
      [
        "у",
        "спе"
      ],
      [
        "в",
        "нима"
      ],
      [
        "лы",
        "е"
      ],
      [
        "ск",
        "ри"
      ],
      [
        "ни",
        "ки"
      ],
      [
        "се",
        "м"
      ],
      [
        "ка",
        "кие"
      ],
      [
        "нь",
        "я"
      ],
      [
        "бу",
        "р"
      ],
      [
        "алек",
        "сан"
      ],
      [
        "которо",
        "го"
      ],
      [
        "го",
        "ре"
      ],
      [
        "гла",
        "з"
      ],
      [
        "хо",
        "м"
      ],
      [
        "ти",
        "ть"
      ],
      [
        "ро",
        "ди"
      ],
      [
        "ши",
        "и"
      ],
      [
        "кото",
        "рая"
      ],
      [
        "к",
        "лю"
      ],
      [
        "ни",
        "ми"
      ],
      [
        "то",
        "н"
      ],
      [
        "т",
        "ки"
      ],
      [
        "го",
        "сти"
      ],
      [
        "ча",
        "и"
      ],
      [
        "ра",
        "вно"
      ],
      [
        "се",
        "го"
      ],
      [
        "по",
        "ве"
      ],
      [
        "сер",
        "ди"
      ],
      [
        "у",
        "бе"
      ],
      [
        "к",
        "нове"
      ],
      [
        "ли",
        "т"
      ],
      [
        "чи",
        "на"
      ],
      [
        "свои",
        "м"
      ],
      [
        "н",
        "ра"
      ],
      [
        "о",
        "м"
      ],
      [
        "стоя",
        "л"
      ],
      [
        "ство",
        "м"
      ],
      [
        "со",
        "ве"
      ],
      [
        "с",
        "ня"
      ],
      [
        "мо",
        "р"
      ],
      [
        "по",
        "шел"
      ],
      [
        "ж",
        "али"
      ],
      [
        "ва",
        "н"
      ],
      [
        "ж",
        "ало"
      ],
      [
        "ка",
        "кая"
      ],
      [
        "на",
        "чал"
      ],
      [
        "зна",
        "ет"
      ],
      [
        "раз",
        "ве"
      ],
      [
        "а",
        "к"
      ],
      [
        "ко",
        "му"
      ],
      [
        "вз",
        "до"
      ],
      [
        "га",
        "я"
      ],
      [
        "деи",
        "стви"
      ],
      [
        "ва",
        "ми"
      ],
      [
        "хозя",
        "и"
      ],
      [
        "смо",
        "три"
      ],
      [
        "ры",
        "и"
      ],
      [
        "со",
        "гла"
      ],
      [
        "ми",
        "хаи"
      ],
      [
        "ре",
        "д"
      ],
      [
        "ло",
        "и"
      ],
      [
        "е",
        "ха"
      ],
      [
        "кли",
        "м"
      ],
      [
        "в",
        "с"
      ],
      [
        "ле",
        "нно"
      ],
      [
        "стро",
        "и"
      ],
      [
        "гля",
        "ды"
      ],
      [
        "гля",
        "дя"
      ],
      [
        "которо",
        "е"
      ],
      [
        "в",
        "про"
      ],
      [
        "по",
        "думал"
      ],
      [
        "обы",
        "кнове"
      ],
      [
        "х",
        "е"
      ],
      [
        "ме",
        "ре"
      ],
      [
        "е",
        "ди"
      ],
      [
        "воз",
        "можно"
      ],
      [
        "эти",
        "х"
      ],
      [
        "та",
        "н"
      ],
      [
        "чу",
        "ть"
      ],
      [
        "я",
        "ви"
      ],
      [
        "гра",
        "фи"
      ],
      [
        "мы",
        "сли"
      ],
      [
        "вше",
        "и"
      ],
      [
        "впро",
        "чем"
      ],
      [
        "дер",
        "жи"
      ],
      [
        "ди",
        "л"
      ],
      [
        "ров",
        "ь"
      ],
      [
        "сту",
        "пи"
      ],
      [
        "де",
        "те"
      ],
      [
        "рь",
        "я"
      ],
      [
        "отве",
        "тил"
      ],
      [
        "име",
        "нно"
      ],
      [
        "ст",
        "ала"
      ],
      [
        "ющи",
        "и"
      ],
      [
        "па",
        "в"
      ],
      [
        "х",
        "ло"
      ],
      [
        "бо",
        "ю"
      ],
      [
        "ва",
        "ше"
      ],
      [
        "с",
        "ъ"
      ],
      [
        "ро",
        "ва"
      ],
      [
        "ши",
        "м"
      ],
      [
        "х",
        "ри"
      ],
      [
        "фран",
        "цу"
      ],
      [
        "зна",
        "ете"
      ],
      [
        "ма",
        "тери"
      ],
      [
        "нь",
        "е"
      ],
      [
        "эти",
        "м"
      ],
      [
        "прав",
        "да"
      ],
      [
        "к",
        "ал"
      ],
      [
        "ти",
        "и"
      ],
      [
        "по",
        "ро"
      ],
      [
        "ри",
        "ть"
      ],
      [
        "ис",
        "пу"
      ],
      [
        "ин",
        "тере"
      ],
      [
        "в",
        "ну"
      ],
      [
        "ско",
        "ре"
      ],
      [
        "го",
        "ря"
      ],
      [
        "ду",
        "ше"
      ],
      [
        "ан",
        "на"
      ],
      [
        "голо",
        "сом"
      ],
      [
        "андре",
        "и"
      ],
      [
        "спроси",
        "ла"
      ],
      [
        "бо",
        "ро"
      ],
      [
        "сво",
        "бо"
      ],
      [
        "на",
        "ро"
      ],
      [
        "од",
        "нои"
      ],
      [
        "до",
        "бро"
      ],
      [
        "прия",
        "тно"
      ],
      [
        "го",
        "род"
      ],
      [
        "ря",
        "д"
      ],
      [
        "х",
        "ра"
      ],
      [
        "бра",
        "т"
      ],
      [
        "ни",
        "ца"
      ],
      [
        "продол",
        "жал"
      ],
      [
        "ни",
        "цы"
      ],
      [
        "ко",
        "ва"
      ],
      [
        "не",
        "ю"
      ],
      [
        "ме",
        "н"
      ],
      [
        "ц",
        "ве"
      ],
      [
        "ши",
        "е"
      ],
      [
        "ши",
        "ро"
      ],
      [
        "р",
        "но"
      ],
      [
        "сол",
        "да"
      ],
      [
        "вер",
        "х"
      ],
      [
        "ива",
        "н"
      ],
      [
        "ш",
        "ал"
      ],
      [
        "по",
        "да"
      ],
      [
        "сли",
        "шком"
      ],
      [
        "и",
        "ск"
      ],
      [
        "хо",
        "чу"
      ],
      [
        "ш",
        "ля"
      ],
      [
        "на",
        "зад"
      ],
      [
        "которы",
        "х"
      ],
      [
        "пре",
        "крас"
      ],
      [
        "сто",
        "в"
      ],
      [
        "одно",
        "го"
      ],
      [
        "ри",
        "я"
      ],
      [
        "рассказ",
        "ы"
      ],
      [
        "б",
        "ре"
      ],
      [
        "ше",
        "п"
      ],
      [
        "сего",
        "дня"
      ],
      [
        "се",
        "л"
      ],
      [
        "дол",
        "жно"
      ],
      [
        "ф",
        "у"
      ],
      [
        "доволь",
        "но"
      ],
      [
        "отве",
        "чал"
      ],
      [
        "ива",
        "нов"
      ],
      [
        "ле",
        "н"
      ],
      [
        "пи",
        "с"
      ],
      [
        "ли",
        "шь"
      ],
      [
        "бу",
        "ма"
      ],
      [
        "г",
        "ли"
      ],
      [
        "пожал",
        "уи"
      ],
      [
        "то",
        "ро"
      ],
      [
        "ща",
        "я"
      ],
      [
        "го",
        "да"
      ],
      [
        "д",
        "ми"
      ],
      [
        "ди",
        "ть"
      ],
      [
        "ж",
        "на"
      ],
      [
        "ка",
        "м"
      ],
      [
        "кото",
        "рую"
      ],
      [
        "улы",
        "ба"
      ],
      [
        "га",
        "ми"
      ],
      [
        "ме",
        "и"
      ],
      [
        "по",
        "ме"
      ],
      [
        "мо",
        "еи"
      ],
      [
        "пра",
        "во"
      ],
      [
        "жа",
        "ть"
      ],
      [
        "до",
        "кто"
      ],
      [
        "ску",
        "ю"
      ],
      [
        "сю",
        "да"
      ],
      [
        "вспо",
        "мни"
      ],
      [
        "д",
        "ала"
      ],
      [
        "хо",
        "д"
      ],
      [
        "те",
        "сь"
      ],
      [
        "ско",
        "е"
      ],
      [
        "ев",
        "на"
      ],
      [
        "вы",
        "шел"
      ],
      [
        "ча",
        "т"
      ],
      [
        "по",
        "мо"
      ],
      [
        "те",
        "х"
      ],
      [
        "ты",
        "ся"
      ],
      [
        "вер",
        "но"
      ],
      [
        "бо",
        "г"
      ],
      [
        "ни",
        "це"
      ],
      [
        "по",
        "бе"
      ],
      [
        "ра",
        "к"
      ],
      [
        "мо",
        "ск"
      ],
      [
        "е",
        "вич"
      ],
      [
        "б",
        "ь"
      ],
      [
        "на",
        "та"
      ],
      [
        "ме",
        "т"
      ],
      [
        "то",
        "вари"
      ],
      [
        "ст",
        "али"
      ],
      [
        "в",
        "чера"
      ],
      [
        "и",
        "г"
      ],
      [
        "чи",
        "во"
      ],
      [
        "ла",
        "я"
      ],
      [
        "ино",
        "гда"
      ],
      [
        "с",
        "ма"
      ],
      [
        "су",
        "ще"
      ],
      [
        "ни",
        "кто"
      ],
      [
        "смо",
        "тря"
      ],
      [
        "нач",
        "ала"
      ],
      [
        "се",
        "н"
      ],
      [
        "ме",
        "нно"
      ],
      [
        "де",
        "н"
      ],
      [
        "ма",
        "я"
      ],
      [
        "в",
        "ро"
      ],
      [
        "ко",
        "л"
      ],
      [
        "ва",
        "ра"
      ],
      [
        "и",
        "спо"
      ],
      [
        "воз",
        "вра"
      ],
      [
        "дол",
        "жен"
      ],
      [
        "ми",
        "ло"
      ],
      [
        "се",
        "д"
      ],
      [
        "х",
        "ле"
      ],
      [
        "говори",
        "ли"
      ],
      [
        "та",
        "и"
      ],
      [
        "пе",
        "тро"
      ],
      [
        "ты",
        "х"
      ],
      [
        "и",
        "сто"
      ],
      [
        "та",
        "ть"
      ],
      [
        "ту",
        "да"
      ],
      [
        "виде",
        "ть"
      ],
      [
        "ру",
        "ками"
      ],
      [
        "си",
        "дел"
      ],
      [
        "у",
        "ви"
      ],
      [
        "го",
        "лу"
      ],
      [
        "во",
        "н"
      ],
      [
        "с",
        "дела"
      ],
      [
        "сло",
        "во"
      ],
      [
        "ка",
        "кое"
      ],
      [
        "сть",
        "я"
      ],
      [
        "ск",
        "ры"
      ],
      [
        "от",
        "ца"
      ],
      [
        "голо",
        "вои"
      ],
      [
        "по",
        "м"
      ],
      [
        "мед",
        "ленно"
      ],
      [
        "з",
        "ре"
      ],
      [
        "пер",
        "выи"
      ],
      [
        "ще",
        "и"
      ],
      [
        "на",
        "т"
      ],
      [
        "ки",
        "ми"
      ],
      [
        "гово",
        "рю"
      ],
      [
        "сте",
        "и"
      ],
      [
        "кра",
        "си"
      ],
      [
        "я",
        "сно"
      ],
      [
        "кон",
        "чи"
      ],
      [
        "во",
        "д"
      ],
      [
        "по",
        "ра"
      ],
      [
        "мо",
        "гла"
      ],
      [
        "ча",
        "ть"
      ],
      [
        "сте",
        "р"
      ],
      [
        "ходи",
        "т"
      ],
      [
        "пь",
        "ер"
      ],
      [
        "сле",
        "д"
      ],
      [
        "кри",
        "чал"
      ],
      [
        "се",
        "ре"
      ],
      [
        "дву",
        "х"
      ],
      [
        "ти",
        "я"
      ],
      [
        "при",
        "вы"
      ],
      [
        "кро",
        "ме"
      ],
      [
        "любо",
        "вь"
      ],
      [
        "сре",
        "ди"
      ],
      [
        "це",
        "в"
      ],
      [
        "зе",
        "ле"
      ],
      [
        "ве",
        "ро"
      ],
      [
        "теле",
        "и"
      ],
      [
        "ка",
        "жды"
      ],
      [
        "о",
        "то"
      ],
      [
        "не",
        "в"
      ],
      [
        "ска",
        "жи"
      ],
      [
        "вре",
        "мени"
      ],
      [
        "мо",
        "м"
      ],
      [
        "ты",
        "м"
      ],
      [
        "це",
        "ло"
      ],
      [
        "со",
        "бои"
      ],
      [
        "ма",
        "ри"
      ],
      [
        "бо",
        "я"
      ],
      [
        "ч",
        "нои"
      ],
      [
        "р",
        "к"
      ],
      [
        "пь",
        "я"
      ],
      [
        "кре",
        "п"
      ],
      [
        "при",
        "ба"
      ],
      [
        "мыс",
        "ль"
      ],
      [
        "с",
        "вер"
      ],
      [
        "мы",
        "и"
      ],
      [
        "ч",
        "ныи"
      ],
      [
        "ко",
        "ман"
      ],
      [
        "пре",
        "ж"
      ],
      [
        "че",
        "ты"
      ],
      [
        "не",
        "у"
      ],
      [
        "ча",
        "сто"
      ],
      [
        "о",
        "коло"
      ],
      [
        "еха",
        "ть"
      ],
      [
        "за",
        "тем"
      ],
      [
        "дума",
        "ть"
      ],
      [
        "под",
        "ви"
      ],
      [
        "но",
        "к"
      ],
      [
        "весе",
        "ло"
      ],
      [
        "комна",
        "те"
      ],
      [
        "стви",
        "е"
      ],
      [
        "сту",
        "п"
      ],
      [
        "о",
        "па"
      ],
      [
        "я",
        "р"
      ],
      [
        "про",
        "сти"
      ],
      [
        "две",
        "ри"
      ],
      [
        "за",
        "па"
      ],
      [
        "нно",
        "м"
      ],
      [
        "ж",
        "ны"
      ],
      [
        "го",
        "суда"
      ],
      [
        "щи",
        "и"
      ],
      [
        "м",
        "нои"
      ],
      [
        "му",
        "жи"
      ],
      [
        "ше",
        "д"
      ],
      [
        "ма",
        "х"
      ],
      [
        "зо",
        "ло"
      ],
      [
        "хо",
        "в"
      ],
      [
        "с",
        "пу"
      ],
      [
        "та",
        "ми"
      ],
      [
        "по",
        "ла"
      ],
      [
        "ни",
        "ть"
      ],
      [
        "ле",
        "ст"
      ],
      [
        "к",
        "нула"
      ],
      [
        "сле",
        "ду"
      ],
      [
        "зна",
        "ешь"
      ],
      [
        "на",
        "чина"
      ],
      [
        "ме",
        "сто"
      ],
      [
        "хо",
        "че"
      ],
      [
        "но",
        "ше"
      ],
      [
        "лы",
        "м"
      ],
      [
        "сем",
        "ь"
      ],
      [
        "благо",
        "да"
      ],
      [
        "ря",
        "дом"
      ],
      [
        "ва",
        "ют"
      ],
      [
        "воз",
        "ду"
      ],
      [
        "за",
        "ве"
      ],
      [
        "комна",
        "ту"
      ],
      [
        "же",
        "нии"
      ],
      [
        "сто",
        "ль"
      ],
      [
        "м",
        "ся"
      ],
      [
        "ф",
        "ор"
      ],
      [
        "мя",
        "г"
      ],
      [
        "к",
        "ля"
      ],
      [
        "сторо",
        "ны"
      ],
      [
        "мо",
        "его"
      ],
      [
        "ски",
        "м"
      ],
      [
        "за",
        "ня"
      ],
      [
        "слыш",
        "ал"
      ],
      [
        "по",
        "вер"
      ],
      [
        "в",
        "перед"
      ],
      [
        "мы",
        "сле"
      ],
      [
        "ров",
        "на"
      ],
      [
        "ми",
        "мо"
      ],
      [
        "ста",
        "ру"
      ],
      [
        "ж",
        "ь"
      ],
      [
        "м",
        "ал"
      ],
      [
        "че",
        "и"
      ],
      [
        "ста",
        "нови"
      ],
      [
        "по",
        "те"
      ],
      [
        "со",
        "стоя"
      ],
      [
        "ни",
        "цу"
      ],
      [
        "в",
        "ста"
      ],
      [
        "д",
        "ныи"
      ],
      [
        "н",
        "ка"
      ],
      [
        "в",
        "шая"
      ],
      [
        "ро",
        "к"
      ],
      [
        "само",
        "м"
      ],
      [
        "о",
        "г"
      ],
      [
        "ра",
        "бот"
      ],
      [
        "же",
        "на"
      ],
      [
        "зо",
        "в"
      ],
      [
        "заме",
        "тил"
      ],
      [
        "к",
        "вар"
      ],
      [
        "пере",
        "до"
      ],
      [
        "сту",
        "па"
      ],
      [
        "е",
        "же"
      ],
      [
        "сло",
        "вно"
      ],
      [
        "и",
        "гра"
      ],
      [
        "хоте",
        "лось"
      ],
      [
        "та",
        "кие"
      ],
      [
        "ба",
        "ры"
      ],
      [
        "дум",
        "ала"
      ],
      [
        "ми",
        "р"
      ],
      [
        "во",
        "сто"
      ],
      [
        "ве",
        "че"
      ],
      [
        "да",
        "м"
      ],
      [
        "ру",
        "кои"
      ],
      [
        "стра",
        "ш"
      ],
      [
        "сло",
        "в"
      ],
      [
        "фе",
        "до"
      ],
      [
        "поз",
        "во"
      ],
      [
        "ти",
        "х"
      ],
      [
        "ве",
        "н"
      ],
      [
        "де",
        "ву"
      ],
      [
        "ходи",
        "ть"
      ],
      [
        "де",
        "шь"
      ],
      [
        "ва",
        "и"
      ],
      [
        "да",
        "вы"
      ],
      [
        "т",
        "ка"
      ],
      [
        "вало",
        "сь"
      ],
      [
        "ну",
        "вшись"
      ],
      [
        "разгово",
        "р"
      ],
      [
        "сво",
        "ем"
      ],
      [
        "ца",
        "ми"
      ],
      [
        "за",
        "кры"
      ],
      [
        "пись",
        "мо"
      ],
      [
        "д",
        "ни"
      ],
      [
        "сторо",
        "ну"
      ],
      [
        "по",
        "сте"
      ],
      [
        "ну",
        "ли"
      ],
      [
        "про",
        "во"
      ],
      [
        "нра",
        "ви"
      ],
      [
        "ме",
        "ста"
      ],
      [
        "ги",
        "на"
      ],
      [
        "пя",
        "т"
      ],
      [
        "моло",
        "дои"
      ],
      [
        "у",
        "ни"
      ],
      [
        "ча",
        "сти"
      ],
      [
        "я",
        "ми"
      ],
      [
        "у",
        "сме"
      ],
      [
        "ка",
        "н"
      ],
      [
        "ди",
        "те"
      ],
      [
        "с",
        "со"
      ],
      [
        "пред",
        "ло"
      ],
      [
        "деистви",
        "тельно"
      ],
      [
        "п",
        "ала"
      ],
      [
        "нь",
        "ше"
      ],
      [
        "женщи",
        "на"
      ],
      [
        "ива",
        "нович"
      ],
      [
        "само",
        "го"
      ],
      [
        "м",
        "ра"
      ],
      [
        "до",
        "мои"
      ],
      [
        "ду",
        "ши"
      ],
      [
        "в",
        "ли"
      ],
      [
        "ви",
        "ча"
      ],
      [
        "де",
        "ль"
      ],
      [
        "к",
        "али"
      ],
      [
        "ста",
        "ра"
      ],
      [
        "зна",
        "чит"
      ],
      [
        "мо",
        "ю"
      ],
      [
        "в",
        "скри"
      ],
      [
        "и",
        "дет"
      ],
      [
        "ре",
        "и"
      ],
      [
        "это",
        "му"
      ],
      [
        "н",
        "ки"
      ],
      [
        "м",
        "г"
      ],
      [
        "стро",
        "е"
      ],
      [
        "день",
        "ги"
      ],
      [
        "та",
        "ким"
      ],
      [
        "тер",
        "пе"
      ],
      [
        "никола",
        "и"
      ],
      [
        "ме",
        "ся"
      ],
      [
        "воск",
        "ли"
      ],
      [
        "го",
        "вари"
      ],
      [
        "ф",
        "ь"
      ],
      [
        "ни",
        "л"
      ],
      [
        "аль",
        "но"
      ],
      [
        "у",
        "ми"
      ],
      [
        "ч",
        "рез"
      ],
      [
        "лег",
        "ко"
      ],
      [
        "кото",
        "ром"
      ],
      [
        "кра",
        "и"
      ],
      [
        "взя",
        "л"
      ],
      [
        "по",
        "се"
      ],
      [
        "ме",
        "ль"
      ],
      [
        "кри",
        "кнул"
      ],
      [
        "ко",
        "ри"
      ],
      [
        "об",
        "ла"
      ],
      [
        "говоря",
        "т"
      ],
      [
        "пи",
        "л"
      ],
      [
        "ск",
        "возь"
      ],
      [
        "ста",
        "ро"
      ],
      [
        "ли",
        "чно"
      ],
      [
        "стари",
        "к"
      ],
      [
        "ре",
        "нно"
      ],
      [
        "бли",
        "з"
      ],
      [
        "д",
        "цать"
      ],
      [
        "у",
        "г"
      ],
      [
        "ка",
        "ж"
      ],
      [
        "пла",
        "ть"
      ],
      [
        "ска",
        "жу"
      ],
      [
        "жа",
        "я"
      ],
      [
        "я",
        "зы"
      ],
      [
        "на",
        "стоя"
      ],
      [
        "ме",
        "л"
      ],
      [
        "счаст",
        "ли"
      ],
      [
        "ду",
        "т"
      ],
      [
        "маль",
        "чи"
      ],
      [
        "улыба",
        "ясь"
      ],
      [
        "со",
        "т"
      ],
      [
        "ва",
        "ется"
      ],
      [
        "пе",
        "тер"
      ],
      [
        "стра",
        "нно"
      ],
      [
        "не",
        "пре"
      ],
      [
        "е",
        "два"
      ],
      [
        "ло",
        "к"
      ],
      [
        "нь",
        "ю"
      ],
      [
        "госпо",
        "ди"
      ],
      [
        "ви",
        "ть"
      ],
      [
        "се",
        "рь"
      ],
      [
        "на",
        "род"
      ],
      [
        "со",
        "бою"
      ],
      [
        "г",
        "ря"
      ],
      [
        "квар",
        "ти"
      ],
      [
        "ту",
        "ю"
      ],
      [
        "х",
        "лю"
      ],
      [
        "пет",
        "р"
      ],
      [
        "мг",
        "нове"
      ],
      [
        "з",
        "ве"
      ],
      [
        "ла",
        "до"
      ],
      [
        "ри",
        "ла"
      ],
      [
        "по",
        "ль"
      ],
      [
        "ти",
        "те"
      ],
      [
        "со",
        "зна"
      ],
      [
        "ка",
        "ким"
      ],
      [
        "дума",
        "ю"
      ],
      [
        "сма",
        "три"
      ],
      [
        "ге",
        "не"
      ],
      [
        "петер",
        "бур"
      ],
      [
        "про",
        "ща"
      ],
      [
        "лиц",
        "у"
      ],
      [
        "не",
        "о"
      ],
      [
        "вал",
        "е"
      ],
      [
        "лицо",
        "м"
      ],
      [
        "вст",
        "ал"
      ],
      [
        "голо",
        "са"
      ],
      [
        "большо",
        "и"
      ],
      [
        "нем",
        "ного"
      ],
      [
        "чи",
        "тал"
      ],
      [
        "пра",
        "вля"
      ],
      [
        "с",
        "делать"
      ],
      [
        "од",
        "ну"
      ],
      [
        "те",
        "л"
      ],
      [
        "ме",
        "ч"
      ],
      [
        "н",
        "ѣ"
      ],
      [
        "на",
        "ше"
      ],
      [
        "которы",
        "м"
      ],
      [
        "би",
        "л"
      ],
      [
        "кры",
        "ль"
      ],
      [
        "в",
        "ку"
      ],
      [
        "з",
        "ал"
      ],
      [
        "де",
        "ть"
      ],
      [
        "в",
        "ѣ"
      ],
      [
        "не",
        "на"
      ],
      [
        "вопро",
        "с"
      ],
      [
        "кажды",
        "и"
      ],
      [
        "уди",
        "вле"
      ],
      [
        "г",
        "на"
      ],
      [
        "про",
        "ти"
      ],
      [
        "об",
        "а"
      ],
      [
        "лов",
        "на"
      ],
      [
        "т",
        "ала"
      ],
      [
        "ня",
        "я"
      ],
      [
        "д",
        "ѣ"
      ],
      [
        "не",
        "ве"
      ],
      [
        "е",
        "ле"
      ],
      [
        "на",
        "ру"
      ],
      [
        "ту",
        "р"
      ],
      [
        "стои",
        "т"
      ],
      [
        "бо",
        "л"
      ],
      [
        "п",
        "ру"
      ],
      [
        "ви",
        "нова"
      ],
      [
        "че",
        "ние"
      ],
      [
        "тре",
        "во"
      ],
      [
        "ре",
        "бе"
      ],
      [
        "веро",
        "я"
      ],
      [
        "про",
        "говорил"
      ],
      [
        "глу",
        "бо"
      ],
      [
        "ш",
        "та"
      ],
      [
        "четы",
        "ре"
      ],
      [
        "дво",
        "р"
      ],
      [
        "лю",
        "б"
      ],
      [
        "не",
        "хлю"
      ],
      [
        "ле",
        "з"
      ],
      [
        "по",
        "каз"
      ],
      [
        "ла",
        "ско"
      ],
      [
        "ди",
        "т"
      ],
      [
        "жи",
        "ли"
      ],
      [
        "ч",
        "ке"
      ],
      [
        "ско",
        "р"
      ],
      [
        "гене",
        "рал"
      ],
      [
        "гра",
        "ф"
      ],
      [
        "об",
        "ходи"
      ],
      [
        "ска",
        "же"
      ],
      [
        "тель",
        "ныи"
      ],
      [
        "комна",
        "ты"
      ],
      [
        "ц",
        "кии"
      ],
      [
        "ви",
        "ла"
      ],
      [
        "ру",
        "ка"
      ],
      [
        "би",
        "ра"
      ],
      [
        "чувст",
        "ву"
      ],
      [
        "подо",
        "шел"
      ],
      [
        "со",
        "ба"
      ],
      [
        "ок",
        "на"
      ],
      [
        "ющи",
        "е"
      ],
      [
        "от",
        "ноше"
      ],
      [
        "бе",
        "спокои"
      ],
      [
        "прия",
        "т"
      ],
      [
        "до",
        "к"
      ],
      [
        "ющи",
        "х"
      ],
      [
        "п",
        "ры"
      ],
      [
        "за",
        "ви"
      ],
      [
        "су",
        "т"
      ],
      [
        "коро",
        "т"
      ],
      [
        "то",
        "ра"
      ],
      [
        "серь",
        "ез"
      ],
      [
        "д",
        "не"
      ],
      [
        "ч",
        "ные"
      ],
      [
        "на",
        "ш"
      ],
      [
        "жи",
        "ла"
      ],
      [
        "си",
        "л"
      ],
      [
        "ис",
        "пы"
      ],
      [
        "ду",
        "ш"
      ],
      [
        "на",
        "ходи"
      ],
      [
        "во",
        "обще"
      ],
      [
        "ро",
        "т"
      ],
      [
        "гром",
        "ко"
      ],
      [
        "до",
        "ста"
      ],
      [
        "си",
        "ла"
      ],
      [
        "тяже",
        "ло"
      ],
      [
        "с",
        "ра"
      ],
      [
        "же",
        "нием"
      ],
      [
        "сто",
        "м"
      ],
      [
        "смотре",
        "ть"
      ],
      [
        "уди",
        "ви"
      ],
      [
        "ба",
        "р"
      ],
      [
        "щу",
        "ю"
      ],
      [
        "дале",
        "ко"
      ],
      [
        "но",
        "ж"
      ],
      [
        "ве",
        "чер"
      ],
      [
        "по",
        "ря"
      ],
      [
        "вздо",
        "х"
      ],
      [
        "тель",
        "ство"
      ],
      [
        "лы",
        "х"
      ],
      [
        "во",
        "шел"
      ],
      [
        "ды",
        "ха"
      ],
      [
        "вно",
        "е"
      ],
      [
        "не",
        "смотря"
      ],
      [
        "та",
        "кая"
      ],
      [
        "си",
        "я"
      ],
      [
        "па",
        "мя"
      ],
      [
        "ни",
        "лся"
      ],
      [
        "та",
        "х"
      ],
      [
        "францу",
        "з"
      ],
      [
        "к",
        "ала"
      ],
      [
        "дми",
        "три"
      ],
      [
        "о",
        "кру"
      ],
      [
        "чи",
        "ть"
      ],
      [
        "ры",
        "е"
      ],
      [
        "т",
        "вои"
      ],
      [
        "со",
        "мне"
      ],
      [
        "гу",
        "бы"
      ],
      [
        "ва",
        "ю"
      ],
      [
        "жи",
        "т"
      ],
      [
        "в",
        "пол"
      ],
      [
        "зна",
        "ла"
      ],
      [
        "с",
        "хва"
      ],
      [
        "на",
        "ста"
      ],
      [
        "го",
        "д"
      ],
      [
        "види",
        "мо"
      ],
      [
        "ше",
        "е"
      ],
      [
        "хо",
        "чет"
      ],
      [
        "д",
        "ти"
      ],
      [
        "до",
        "ж"
      ],
      [
        "он",
        "ъ"
      ],
      [
        "пи",
        "ть"
      ],
      [
        "сол",
        "нце"
      ],
      [
        "мол",
        "чал"
      ],
      [
        "ме",
        "сте"
      ],
      [
        "понима",
        "ю"
      ],
      [
        "ни",
        "з"
      ],
      [
        "ж",
        "о"
      ],
      [
        "моло",
        "ды"
      ],
      [
        "мину",
        "т"
      ],
      [
        "сер",
        "г"
      ],
      [
        "по",
        "спе"
      ],
      [
        "ре",
        "ше"
      ],
      [
        "тем",
        "но"
      ],
      [
        "останови",
        "лся"
      ],
      [
        "с",
        "разу"
      ],
      [
        "за",
        "дум"
      ],
      [
        "ста",
        "н"
      ],
      [
        "от",
        "во"
      ],
      [
        "бор",
        "мо"
      ],
      [
        "на",
        "зы"
      ],
      [
        "по",
        "тре"
      ],
      [
        "до",
        "ме"
      ],
      [
        "глаза",
        "х"
      ],
      [
        "ню",
        "ю"
      ],
      [
        "при",
        "зна"
      ],
      [
        "о",
        "све"
      ],
      [
        "ви",
        "жу"
      ],
      [
        "ужа",
        "с"
      ],
      [
        "с",
        "чита"
      ],
      [
        "ве",
        "и"
      ],
      [
        "само",
        "е"
      ],
      [
        "дру",
        "га"
      ],
      [
        "други",
        "х"
      ],
      [
        "лю",
        "блю"
      ],
      [
        "госпо",
        "да"
      ],
      [
        "гля",
        "дел"
      ],
      [
        "до",
        "са"
      ],
      [
        "сме",
        "ш"
      ],
      [
        "и",
        "ль"
      ],
      [
        "о",
        "ди"
      ],
      [
        "га",
        "ть"
      ],
      [
        "стави",
        "ть"
      ],
      [
        "о",
        "щу"
      ],
      [
        "при",
        "ходи"
      ],
      [
        "у",
        "че"
      ],
      [
        "ле",
        "и"
      ],
      [
        "по",
        "кои"
      ],
      [
        "ма",
        "рья"
      ],
      [
        "ша",
        "ть"
      ],
      [
        "о",
        "гром"
      ],
      [
        "га",
        "х"
      ],
      [
        "из",
        "ви"
      ],
      [
        "ро",
        "сси"
      ],
      [
        "во",
        "все"
      ],
      [
        "вы",
        "ми"
      ],
      [
        "ск",
        "ло"
      ],
      [
        "фи",
        "гу"
      ],
      [
        "ру",
        "ках"
      ],
      [
        "боле",
        "з"
      ],
      [
        "по",
        "я"
      ],
      [
        "те",
        "ли"
      ],
      [
        "не",
        "ожида"
      ],
      [
        "в",
        "шую"
      ],
      [
        "ж",
        "але"
      ],
      [
        "ст",
        "ру"
      ],
      [
        "де",
        "не"
      ],
      [
        "смотре",
        "ла"
      ],
      [
        "слу",
        "чи"
      ],
      [
        "иванов",
        "на"
      ],
      [
        "г",
        "ло"
      ],
      [
        "м",
        "ноги"
      ],
      [
        "раз",
        "дра"
      ],
      [
        "дру",
        "гу"
      ],
      [
        "дь",
        "я"
      ],
      [
        "то",
        "е"
      ],
      [
        "про",
        "тя"
      ],
      [
        "ча",
        "са"
      ],
      [
        "еже",
        "ли"
      ],
      [
        "г",
        "нул"
      ],
      [
        "не",
        "обходи"
      ],
      [
        "сы",
        "н"
      ],
      [
        "ска",
        "ть"
      ],
      [
        "раз",
        "уме"
      ],
      [
        "испо",
        "л"
      ],
      [
        "ш",
        "ко"
      ],
      [
        "по",
        "го"
      ],
      [
        "де",
        "во"
      ],
      [
        "о",
        "ру"
      ],
      [
        "за",
        "пи"
      ],
      [
        "ни",
        "ч"
      ],
      [
        "моло",
        "до"
      ],
      [
        "в",
        "до"
      ],
      [
        "о",
        "сторо"
      ],
      [
        "кра",
        "со"
      ],
      [
        "изве",
        "стно"
      ],
      [
        "ну",
        "лись"
      ],
      [
        "изве",
        "ст"
      ],
      [
        "вероя",
        "тно"
      ],
      [
        "ч",
        "о"
      ],
      [
        "та",
        "ких"
      ],
      [
        "пе",
        "чат"
      ],
      [
        "вшии",
        "ся"
      ],
      [
        "да",
        "я"
      ],
      [
        "з",
        "до"
      ],
      [
        "д",
        "ался"
      ],
      [
        "са",
        "ди"
      ],
      [
        "пра",
        "вле"
      ],
      [
        "ла",
        "н"
      ],
      [
        "ним",
        "ал"
      ],
      [
        "ъ",
        "ез"
      ],
      [
        "люб",
        "ви"
      ],
      [
        "го",
        "и"
      ],
      [
        "у",
        "доволь"
      ],
      [
        "други",
        "е"
      ],
      [
        "ши",
        "на"
      ],
      [
        "сте",
        "па"
      ],
      [
        "воло",
        "сы"
      ],
      [
        "скоре",
        "е"
      ],
      [
        "на",
        "ши"
      ],
      [
        "ис",
        "че"
      ],
      [
        "ющи",
        "м"
      ],
      [
        "све",
        "те"
      ],
      [
        "вар",
        "вара"
      ],
      [
        "от",
        "чего"
      ],
      [
        "ди",
        "я"
      ],
      [
        "гру",
        "ди"
      ],
      [
        "да",
        "в"
      ],
      [
        "по",
        "е"
      ],
      [
        "ко",
        "ли"
      ],
      [
        "за",
        "ми"
      ],
      [
        "ты",
        "ми"
      ],
      [
        "но",
        "сти"
      ],
      [
        "нач",
        "аль"
      ],
      [
        "воро",
        "т"
      ],
      [
        "ш",
        "ке"
      ],
      [
        "мы",
        "е"
      ],
      [
        "ужа",
        "сно"
      ],
      [
        "во",
        "спо"
      ],
      [
        "ви",
        "на"
      ],
      [
        "са",
        "мои"
      ],
      [
        "ца",
        "ти"
      ],
      [
        "по",
        "ру"
      ],
      [
        "з",
        "доро"
      ],
      [
        "и",
        "дти"
      ],
      [
        "сво",
        "ему"
      ],
      [
        "крас",
        "не"
      ],
      [
        "силь",
        "но"
      ],
      [
        "воль",
        "те"
      ],
      [
        "улыб",
        "кои"
      ],
      [
        "ле",
        "вин"
      ],
      [
        "к",
        "ровь"
      ],
      [
        "во",
        "круг"
      ],
      [
        "де",
        "ви"
      ],
      [
        "я",
        "х"
      ],
      [
        "у",
        "т"
      ],
      [
        "ру",
        "ба"
      ],
      [
        "реши",
        "тельно"
      ],
      [
        "о",
        "кон"
      ],
      [
        "при",
        "шел"
      ],
      [
        "пу",
        "сть"
      ],
      [
        "од",
        "ним"
      ],
      [
        "сре",
        "д"
      ],
      [
        "при",
        "мер"
      ],
      [
        "свои",
        "ми"
      ],
      [
        "докто",
        "р"
      ],
      [
        "за",
        "п"
      ],
      [
        "по",
        "ли"
      ],
      [
        "согла",
        "си"
      ],
      [
        "при",
        "ве"
      ],
      [
        "о",
        "стро"
      ],
      [
        "ти",
        "ли"
      ],
      [
        "цо",
        "в"
      ],
      [
        "во",
        "лю"
      ],
      [
        "сле",
        "зы"
      ],
      [
        "офице",
        "р"
      ],
      [
        "голо",
        "ва"
      ],
      [
        "ар",
        "ка"
      ],
      [
        "ка",
        "би"
      ],
      [
        "ще",
        "ние"
      ],
      [
        "от",
        "чая"
      ],
      [
        "щи",
        "х"
      ],
      [
        "даль",
        "ше"
      ],
      [
        "о",
        "пусти"
      ],
      [
        "тре",
        "ть"
      ],
      [
        "не",
        "бо"
      ],
      [
        "ла",
        "м"
      ],
      [
        "щи",
        "е"
      ],
      [
        "смер",
        "ти"
      ],
      [
        "б",
        "ѣ"
      ],
      [
        "ро",
        "ма"
      ],
      [
        "ди",
        "и"
      ],
      [
        "при",
        "чи"
      ],
      [
        "ско",
        "му"
      ],
      [
        "ех",
        "али"
      ],
      [
        "алек",
        "се"
      ],
      [
        "за",
        "говорил"
      ],
      [
        "п",
        "ти"
      ],
      [
        "ча",
        "ми"
      ],
      [
        "жде",
        "ния"
      ],
      [
        "та",
        "кого"
      ],
      [
        "ги",
        "м"
      ],
      [
        "ку",
        "ту"
      ],
      [
        "восто",
        "р"
      ],
      [
        "вше",
        "е"
      ],
      [
        "ната",
        "ша"
      ],
      [
        "ти",
        "н"
      ],
      [
        "спокои",
        "но"
      ],
      [
        "б",
        "ал"
      ],
      [
        "госпо",
        "дин"
      ],
      [
        "ж",
        "дал"
      ],
      [
        "га",
        "р"
      ],
      [
        "п",
        "ля"
      ],
      [
        "с",
        "л"
      ],
      [
        "бо",
        "же"
      ],
      [
        "ше",
        "н"
      ],
      [
        "подо",
        "б"
      ],
      [
        "ор",
        "тру"
      ],
      [
        "по",
        "т"
      ],
      [
        "м",
        "ною"
      ],
      [
        "сты",
        "и"
      ],
      [
        "рас",
        "су"
      ],
      [
        "буду",
        "т"
      ],
      [
        "ле",
        "ние"
      ],
      [
        "лов",
        "ко"
      ],
      [
        "за",
        "бы"
      ],
      [
        "про",
        "ис"
      ],
      [
        "му",
        "чи"
      ],
      [
        "алек",
        "сеи"
      ],
      [
        "сдел",
        "ал"
      ],
      [
        "пь",
        "е"
      ],
      [
        "че",
        "к"
      ],
      [
        "над",
        "цать"
      ],
      [
        "хо",
        "тите"
      ],
      [
        "стра",
        "шно"
      ],
      [
        "давы",
        "дов"
      ],
      [
        "ра",
        "д"
      ],
      [
        "пред",
        "ставля"
      ],
      [
        "н",
        "скии"
      ],
      [
        "по",
        "кло"
      ],
      [
        "ч",
        "ным"
      ],
      [
        "по",
        "смотрел"
      ],
      [
        "хоте",
        "ла"
      ],
      [
        "з",
        "да"
      ],
      [
        "то",
        "бои"
      ],
      [
        "бо",
        "гу"
      ],
      [
        "ку",
        "р"
      ],
      [
        "ще",
        "ния"
      ],
      [
        "шу",
        "м"
      ],
      [
        "и",
        "ти"
      ],
      [
        "зна",
        "чи"
      ],
      [
        "любо",
        "пыт"
      ],
      [
        "отве",
        "т"
      ],
      [
        "гру",
        "дь"
      ],
      [
        "поня",
        "л"
      ],
      [
        "ве",
        "ри"
      ],
      [
        "я",
        "ков"
      ],
      [
        "ти",
        "лась"
      ],
      [
        "поня",
        "ть"
      ],
      [
        "все",
        "и"
      ],
      [
        "дно",
        "е"
      ],
      [
        "в",
        "след"
      ],
      [
        "ба",
        "ми"
      ],
      [
        "ба",
        "тю"
      ],
      [
        "образ",
        "и"
      ],
      [
        "но",
        "г"
      ],
      [
        "бе",
        "ль"
      ],
      [
        "кня",
        "зя"
      ],
      [
        "взгля",
        "д"
      ],
      [
        "ка",
        "ра"
      ],
      [
        "тих",
        "он"
      ],
      [
        "за",
        "бо"
      ],
      [
        "а",
        "вто"
      ],
      [
        "бе",
        "д"
      ],
      [
        "весь",
        "ма"
      ],
      [
        "глу",
        "по"
      ],
      [
        "ва",
        "силь"
      ],
      [
        "при",
        "ез"
      ],
      [
        "к",
        "ле"
      ],
      [
        "п",
        "али"
      ],
      [
        "го",
        "в"
      ],
      [
        "се",
        "да"
      ],
      [
        "те",
        "н"
      ],
      [
        "пис",
        "ал"
      ],
      [
        "за",
        "ко"
      ],
      [
        "зем",
        "лю"
      ],
      [
        "у",
        "ва"
      ],
      [
        "о",
        "хот"
      ],
      [
        "ста",
        "вле"
      ],
      [
        "жи",
        "во"
      ],
      [
        "ч",
        "ных"
      ],
      [
        "люби",
        "л"
      ],
      [
        "у",
        "видел"
      ],
      [
        "со",
        "к"
      ],
      [
        "алексан",
        "д"
      ],
      [
        "испу",
        "га"
      ],
      [
        "ис",
        "ку"
      ],
      [
        "не",
        "чего"
      ],
      [
        "нно",
        "сти"
      ],
      [
        "ж",
        "ки"
      ],
      [
        "те",
        "нь"
      ],
      [
        "ле",
        "ния"
      ],
      [
        "со",
        "об"
      ],
      [
        "случа",
        "е"
      ],
      [
        "про",
        "шло"
      ],
      [
        "тель",
        "ным"
      ],
      [
        "нно",
        "сть"
      ],
      [
        "де",
        "в"
      ],
      [
        "ну",
        "ло"
      ],
      [
        "ры",
        "х"
      ],
      [
        "при",
        "каз"
      ],
      [
        "о",
        "гля"
      ],
      [
        "каз",
        "ался"
      ],
      [
        "воль",
        "но"
      ],
      [
        "ка",
        "кую"
      ],
      [
        "сто",
        "ла"
      ],
      [
        "ци",
        "н"
      ],
      [
        "мог",
        "ли"
      ],
      [
        "з",
        "ри"
      ],
      [
        "ро",
        "зо"
      ],
      [
        "чи",
        "и"
      ],
      [
        "юще",
        "и"
      ],
      [
        "торо",
        "п"
      ],
      [
        "ч",
        "ного"
      ],
      [
        "дно",
        "го"
      ],
      [
        "за",
        "ди"
      ],
      [
        "со",
        "н"
      ],
      [
        "стоя",
        "ла"
      ],
      [
        "во",
        "ю"
      ],
      [
        "ж",
        "ку"
      ],
      [
        "н",
        "ке"
      ],
      [
        "по",
        "па"
      ],
      [
        "сты",
        "е"
      ],
      [
        "женщи",
        "ны"
      ],
      [
        "солда",
        "т"
      ],
      [
        "хоче",
        "шь"
      ],
      [
        "сы",
        "на"
      ],
      [
        "л",
        "ка"
      ],
      [
        "вши",
        "м"
      ],
      [
        "ходи",
        "ли"
      ],
      [
        "ан",
        "гли"
      ],
      [
        "кар",
        "ма"
      ],
      [
        "пи",
        "ро"
      ],
      [
        "на",
        "ве"
      ],
      [
        "по",
        "мина"
      ],
      [
        "лу",
        "ю"
      ],
      [
        "ходи",
        "ла"
      ],
      [
        "стви",
        "я"
      ],
      [
        "о",
        "ши"
      ],
      [
        "ти",
        "т"
      ],
      [
        "уже",
        "ли"
      ],
      [
        "о",
        "го"
      ],
      [
        "п",
        "лы"
      ],
      [
        "объя",
        "сни"
      ],
      [
        "сто",
        "лько"
      ],
      [
        "у",
        "тра"
      ],
      [
        "заме",
        "ча"
      ],
      [
        "коро",
        "ле"
      ],
      [
        "но",
        "чи"
      ],
      [
        "вы",
        "ше"
      ],
      [
        "ва",
        "ния"
      ],
      [
        "л",
        "ки"
      ],
      [
        "ни",
        "ком"
      ],
      [
        "друго",
        "е"
      ],
      [
        "де",
        "ти"
      ],
      [
        "ж",
        "ныи"
      ],
      [
        "самы",
        "и"
      ],
      [
        "вече",
        "ром"
      ],
      [
        "жда",
        "ть"
      ],
      [
        "смея",
        "лся"
      ],
      [
        "пе",
        "ч"
      ],
      [
        "слу",
        "ж"
      ],
      [
        "мину",
        "ты"
      ],
      [
        "в",
        "на"
      ],
      [
        "ш",
        "ала"
      ],
      [
        "ка",
        "ме"
      ],
      [
        "ка",
        "кого"
      ],
      [
        "ю",
        "щего"
      ],
      [
        "на",
        "кло"
      ],
      [
        "пожалуи",
        "ста"
      ],
      [
        "и",
        "бо"
      ],
      [
        "жи",
        "в"
      ],
      [
        "мы",
        "х"
      ],
      [
        "р",
        "али"
      ],
      [
        "ци",
        "я"
      ],
      [
        "у",
        "глу"
      ],
      [
        "ча",
        "сов"
      ],
      [
        "ч",
        "ок"
      ],
      [
        "щи",
        "м"
      ],
      [
        "два",
        "дцать"
      ],
      [
        "г",
        "али"
      ],
      [
        "ль",
        "но"
      ],
      [
        "как",
        "ъ"
      ],
      [
        "тру",
        "дно"
      ],
      [
        "непре",
        "менно"
      ],
      [
        "ск",
        "е"
      ],
      [
        "по",
        "казы"
      ],
      [
        "би",
        "ть"
      ],
      [
        "голо",
        "вы"
      ],
      [
        "стро",
        "го"
      ],
      [
        "холо",
        "д"
      ],
      [
        "да",
        "и"
      ],
      [
        "же",
        "р"
      ],
      [
        "подня",
        "л"
      ],
      [
        "же",
        "м"
      ],
      [
        "сту",
        "пле"
      ],
      [
        "же",
        "ни"
      ],
      [
        "бе",
        "ло"
      ],
      [
        "образ",
        "ом"
      ],
      [
        "е",
        "дин"
      ],
      [
        "жа",
        "р"
      ],
      [
        "су",
        "дь"
      ],
      [
        "ж",
        "ным"
      ],
      [
        "тре",
        "х"
      ],
      [
        "д",
        "неи"
      ],
      [
        "ка",
        "тери"
      ],
      [
        "ста",
        "рыи"
      ],
      [
        "под",
        "ле"
      ],
      [
        "гу",
        "бер"
      ],
      [
        "к",
        "ти"
      ],
      [
        "об",
        "я"
      ],
      [
        "са",
        "д"
      ],
      [
        "соб",
        "стве"
      ],
      [
        "и",
        "на"
      ],
      [
        "п",
        "нин"
      ],
      [
        "во",
        "ды"
      ],
      [
        "и",
        "ди"
      ],
      [
        "р",
        "ался"
      ],
      [
        "до",
        "н"
      ],
      [
        "в",
        "печат"
      ],
      [
        "ми",
        "ли"
      ],
      [
        "вне",
        "зап"
      ],
      [
        "ру",
        "бле"
      ],
      [
        "проси",
        "л"
      ],
      [
        "не",
        "ужели"
      ],
      [
        "лу",
        "жи"
      ],
      [
        "жи",
        "м"
      ],
      [
        "раз",
        "ли"
      ],
      [
        "по",
        "ез"
      ],
      [
        "поло",
        "жение"
      ],
      [
        "чрез",
        "вы"
      ],
      [
        "ж",
        "ные"
      ],
      [
        "ре",
        "чь"
      ],
      [
        "ва",
        "жно"
      ],
      [
        "вол",
        "не"
      ],
      [
        "поте",
        "ря"
      ],
      [
        "по",
        "кры"
      ],
      [
        "ни",
        "как"
      ],
      [
        "вер",
        "нулся"
      ],
      [
        "стра",
        "да"
      ],
      [
        "зем",
        "ле"
      ],
      [
        "о",
        "пу"
      ],
      [
        "дол",
        "жны"
      ],
      [
        "лоша",
        "дь"
      ],
      [
        "ва",
        "сили"
      ],
      [
        "му",
        "зы"
      ],
      [
        "слу",
        "шал"
      ],
      [
        "чет",
        "вер"
      ],
      [
        "петро",
        "вич"
      ],
      [
        "ста",
        "я"
      ],
      [
        "воскли",
        "кнул"
      ],
      [
        "про",
        "шу"
      ],
      [
        "не",
        "приятно"
      ],
      [
        "ве",
        "ре"
      ],
      [
        "в",
        "лю"
      ],
      [
        "г",
        "ну"
      ],
      [
        "у",
        "мер"
      ],
      [
        "ка",
        "пи"
      ],
      [
        "бра",
        "ть"
      ],
      [
        "щ",
        "ал"
      ],
      [
        "воз",
        "бу"
      ],
      [
        "д",
        "ю"
      ],
      [
        "мы",
        "м"
      ],
      [
        "ге",
        "р"
      ],
      [
        "сте",
        "пан"
      ],
      [
        "ре",
        "чи"
      ],
      [
        "е",
        "ю"
      ],
      [
        "тельно",
        "е"
      ],
      [
        "лоша",
        "ди"
      ],
      [
        "ут",
        "ром"
      ],
      [
        "от",
        "куда"
      ],
      [
        "плать",
        "е"
      ],
      [
        "осторо",
        "жно"
      ],
      [
        "под",
        "ро"
      ],
      [
        "нат",
        "аль"
      ],
      [
        "оче",
        "видно"
      ],
      [
        "люби",
        "т"
      ],
      [
        "ар",
        "ми"
      ],
      [
        "ст",
        "ри"
      ],
      [
        "при",
        "гла"
      ],
      [
        "обя",
        "за"
      ],
      [
        "по",
        "казалось"
      ],
      [
        "ра",
        "чи"
      ],
      [
        "одно",
        "м"
      ],
      [
        "бормо",
        "тал"
      ],
      [
        "а",
        "на"
      ],
      [
        "за",
        "пла"
      ],
      [
        "у",
        "шел"
      ],
      [
        "ли",
        "п"
      ],
      [
        "до",
        "ло"
      ],
      [
        "ле",
        "жа"
      ],
      [
        "ж",
        "нои"
      ],
      [
        "ше",
        "к"
      ],
      [
        "з",
        "ли"
      ],
      [
        "ку",
        "ла"
      ],
      [
        "друго",
        "го"
      ],
      [
        "но",
        "во"
      ],
      [
        "по",
        "чувствовал"
      ],
      [
        "ни",
        "кого"
      ],
      [
        "ла",
        "д"
      ],
      [
        "за",
        "клю"
      ],
      [
        "бо",
        "ри"
      ],
      [
        "лы",
        "ми"
      ],
      [
        "сле",
        "г"
      ],
      [
        "ра",
        "х"
      ],
      [
        "зна",
        "я"
      ],
      [
        "у",
        "до"
      ],
      [
        "те",
        "ло"
      ],
      [
        "че",
        "ния"
      ],
      [
        "ду",
        "р"
      ],
      [
        "а",
        "та"
      ],
      [
        "н",
        "че"
      ],
      [
        "н",
        "ку"
      ],
      [
        "за",
        "ку"
      ],
      [
        "име",
        "л"
      ],
      [
        "т",
        "ку"
      ],
      [
        "жи",
        "и"
      ],
      [
        "але",
        "ша"
      ],
      [
        "к",
        "лу"
      ],
      [
        "стоя",
        "ли"
      ],
      [
        "тор",
        "же"
      ],
      [
        "ш",
        "кои"
      ],
      [
        "ды",
        "м"
      ],
      [
        "повто",
        "ря"
      ],
      [
        "у",
        "знал"
      ],
      [
        "ма",
        "с"
      ],
      [
        "са",
        "по"
      ],
      [
        "ста",
        "вил"
      ],
      [
        "бе",
        "жал"
      ],
      [
        "при",
        "ехал"
      ],
      [
        "и",
        "ч"
      ],
      [
        "ро",
        "стов"
      ],
      [
        "доро",
        "ги"
      ],
      [
        "ще",
        "е"
      ],
      [
        "па",
        "ри"
      ],
      [
        "не",
        "подви"
      ],
      [
        "голо",
        "ве"
      ],
      [
        "писа",
        "ть"
      ],
      [
        "бары",
        "ш"
      ],
      [
        "лю",
        "дя"
      ],
      [
        "пол",
        "но"
      ],
      [
        "лоша",
        "деи"
      ],
      [
        "и",
        "ми"
      ],
      [
        "шь",
        "ся"
      ],
      [
        "не",
        "жно"
      ],
      [
        "мо",
        "го"
      ],
      [
        "пе",
        "ра"
      ],
      [
        "мо",
        "в"
      ],
      [
        "же",
        "ны"
      ],
      [
        "поло",
        "ви"
      ],
      [
        "ду",
        "шно"
      ],
      [
        "тель",
        "нои"
      ],
      [
        "передо",
        "нов"
      ],
      [
        "у",
        "ма"
      ],
      [
        "при",
        "ме"
      ],
      [
        "при",
        "слу"
      ],
      [
        "у",
        "спокои"
      ],
      [
        "вре",
        "ме"
      ],
      [
        "улыб",
        "нулся"
      ],
      [
        "дете",
        "и"
      ],
      [
        "слег",
        "ка"
      ],
      [
        "к",
        "ъ"
      ],
      [
        "ф",
        "ро"
      ],
      [
        "но",
        "с"
      ],
      [
        "у",
        "те"
      ],
      [
        "не",
        "обыкнове"
      ],
      [
        "за",
        "щи"
      ],
      [
        "пе",
        "л"
      ],
      [
        "об",
        "ре"
      ],
      [
        "деся",
        "ть"
      ],
      [
        "мо",
        "их"
      ],
      [
        "вы",
        "шла"
      ],
      [
        "кро",
        "ви"
      ],
      [
        "у",
        "ча"
      ],
      [
        "я",
        "вля"
      ],
      [
        "к",
        "т"
      ],
      [
        "ско",
        "чил"
      ],
      [
        "види",
        "те"
      ],
      [
        "бо",
        "м"
      ],
      [
        "б",
        "ря"
      ],
      [
        "от",
        "прави"
      ],
      [
        "ок",
        "но"
      ],
      [
        "про",
        "ко"
      ],
      [
        "це",
        "м"
      ],
      [
        "кар",
        "ти"
      ],
      [
        "приба",
        "вил"
      ],
      [
        "че",
        "скои"
      ],
      [
        "ре",
        "нь"
      ],
      [
        "до",
        "сти"
      ],
      [
        "бы",
        "вало"
      ],
      [
        "графи",
        "ня"
      ],
      [
        "по",
        "ля"
      ],
      [
        "по",
        "стоя"
      ],
      [
        "ина",
        "че"
      ],
      [
        "ри",
        "ю"
      ],
      [
        "те",
        "ра"
      ],
      [
        "так",
        "же"
      ],
      [
        "у",
        "зна"
      ],
      [
        "чи",
        "сто"
      ],
      [
        "при",
        "нима"
      ],
      [
        "сло",
        "вом"
      ],
      [
        "реши",
        "л"
      ],
      [
        "с",
        "на"
      ],
      [
        "дер",
        "жал"
      ],
      [
        "бе",
        "спо"
      ],
      [
        "кня",
        "ги"
      ],
      [
        "се",
        "ку"
      ],
      [
        "ст",
        "ры"
      ],
      [
        "до",
        "га"
      ],
      [
        "ше",
        "нь"
      ],
      [
        "ак",
        "си"
      ],
      [
        "вс",
        "пы"
      ],
      [
        "дене",
        "г"
      ],
      [
        "у",
        "слы"
      ],
      [
        "ни",
        "ку"
      ],
      [
        "му",
        "жа"
      ],
      [
        "вя",
        "з"
      ],
      [
        "смер",
        "ть"
      ],
      [
        "а",
        "ре"
      ],
      [
        "нехлю",
        "дов"
      ],
      [
        "ко",
        "ль"
      ],
      [
        "во",
        "обра"
      ],
      [
        "с",
        "це"
      ],
      [
        "вся",
        "кии"
      ],
      [
        "юще",
        "е"
      ],
      [
        "ме",
        "нт"
      ],
      [
        "вы",
        "рази"
      ],
      [
        "ду",
        "ра"
      ],
      [
        "ра",
        "ди"
      ],
      [
        "об",
        "ма"
      ],
      [
        "не",
        "тся"
      ],
      [
        "сло",
        "ви"
      ],
      [
        "ро",
        "ман"
      ],
      [
        "ха",
        "рак"
      ],
      [
        "ка",
        "ре"
      ],
      [
        "ту",
        "шка"
      ],
      [
        "обра",
        "ща"
      ],
      [
        "у",
        "сили"
      ],
      [
        "ри",
        "на"
      ],
      [
        "мо",
        "на"
      ],
      [
        "про",
        "фе"
      ],
      [
        "че",
        "н"
      ],
      [
        "вспомни",
        "л"
      ],
      [
        "же",
        "сто"
      ],
      [
        "п",
        "раз"
      ],
      [
        "ня",
        "х"
      ],
      [
        "каза",
        "ки"
      ],
      [
        "горо",
        "де"
      ],
      [
        "пло",
        "ща"
      ],
      [
        "о",
        "пре"
      ],
      [
        "ва",
        "ш"
      ],
      [
        "де",
        "я"
      ],
      [
        "пло",
        "хо"
      ],
      [
        "случа",
        "и"
      ],
      [
        "воспо",
        "мина"
      ],
      [
        "д",
        "ливо"
      ],
      [
        "си",
        "дела"
      ],
      [
        "ле",
        "жал"
      ],
      [
        "при",
        "бли"
      ],
      [
        "те",
        "и"
      ],
      [
        "из",
        "мени"
      ],
      [
        "р",
        "ала"
      ],
      [
        "се",
        "ла"
      ],
      [
        "бу",
        "дем"
      ],
      [
        "га",
        "ри"
      ],
      [
        "креп",
        "ко"
      ],
      [
        "на",
        "шего"
      ],
      [
        "по",
        "ми"
      ],
      [
        "ка",
        "ть"
      ],
      [
        "да",
        "ет"
      ],
      [
        "раз",
        "о"
      ],
      [
        "щи",
        "к"
      ],
      [
        "разуме",
        "ется"
      ],
      [
        "о",
        "гляды"
      ],
      [
        "ру",
        "ке"
      ],
      [
        "каза",
        "ть"
      ],
      [
        "ти",
        "лись"
      ],
      [
        "га",
        "и"
      ],
      [
        "на",
        "против"
      ],
      [
        "па",
        "х"
      ],
      [
        "кон",
        "це"
      ],
      [
        "по",
        "во"
      ],
      [
        "по",
        "жи"
      ],
      [
        "каж",
        "до"
      ],
      [
        "ну",
        "ться"
      ],
      [
        "у",
        "з"
      ],
      [
        "ра",
        "ми"
      ],
      [
        "ны",
        "нче"
      ],
      [
        "би",
        "н"
      ],
      [
        "ци",
        "ю"
      ],
      [
        "види",
        "шь"
      ],
      [
        "еле",
        "на"
      ],
      [
        "на",
        "з"
      ],
      [
        "со",
        "еди"
      ],
      [
        "крас",
        "но"
      ],
      [
        "вшие",
        "ся"
      ],
      [
        "ве",
        "чера"
      ],
      [
        "при",
        "сут"
      ],
      [
        "ге",
        "нер"
      ],
      [
        "б",
        "ля"
      ],
      [
        "же",
        "и"
      ],
      [
        "ния",
        "х"
      ],
      [
        "ч",
        "кои"
      ],
      [
        "чер",
        "т"
      ],
      [
        "ни",
        "на"
      ],
      [
        "от",
        "ра"
      ],
      [
        "сто",
        "ле"
      ],
      [
        "ча",
        "ино"
      ],
      [
        "нно",
        "му"
      ],
      [
        "чувст",
        "ва"
      ],
      [
        "но",
        "гу"
      ],
      [
        "ши",
        "н"
      ],
      [
        "зу",
        "бы"
      ],
      [
        "по",
        "шла"
      ],
      [
        "ря",
        "х"
      ],
      [
        "сам",
        "гина"
      ],
      [
        "вме",
        "сто"
      ],
      [
        "т",
        "ъ"
      ],
      [
        "и",
        "сти"
      ],
      [
        "по",
        "ры"
      ],
      [
        "тре",
        "н"
      ],
      [
        "ите",
        "сь"
      ],
      [
        "ва",
        "е"
      ],
      [
        "пои",
        "дем"
      ],
      [
        "ру",
        "к"
      ],
      [
        "на",
        "у"
      ],
      [
        "ц",
        "вет"
      ],
      [
        "э",
        "к"
      ],
      [
        "бра",
        "та"
      ],
      [
        "надо",
        "бно"
      ],
      [
        "цо",
        "м"
      ],
      [
        "тороп",
        "ливо"
      ],
      [
        "го",
        "рь"
      ],
      [
        "дво",
        "е"
      ],
      [
        "ост",
        "аль"
      ],
      [
        "горо",
        "да"
      ],
      [
        "ва",
        "ние"
      ],
      [
        "му",
        "ю"
      ],
      [
        "си",
        "дя"
      ],
      [
        "пере",
        "ди"
      ],
      [
        "сторо",
        "н"
      ],
      [
        "у",
        "ро"
      ],
      [
        "во",
        "ли"
      ],
      [
        "гла",
        "в"
      ],
      [
        "бле",
        "стя"
      ],
      [
        "мер",
        "т"
      ],
      [
        "п",
        "лю"
      ],
      [
        "мар",
        "гари"
      ],
      [
        "на",
        "ли"
      ],
      [
        "ви",
        "дела"
      ],
      [
        "ки",
        "н"
      ],
      [
        "мо",
        "ему"
      ],
      [
        "обра",
        "тился"
      ],
      [
        "полу",
        "чи"
      ],
      [
        "ре",
        "волю"
      ],
      [
        "с",
        "начала"
      ],
      [
        "ма",
        "ка"
      ],
      [
        "з",
        "ла"
      ],
      [
        "на",
        "блю"
      ],
      [
        "ста",
        "ть"
      ],
      [
        "о",
        "скор"
      ],
      [
        "успе",
        "л"
      ],
      [
        "ну",
        "т"
      ],
      [
        "говори",
        "те"
      ],
      [
        "ти",
        "мо"
      ],
      [
        "воз",
        "ле"
      ],
      [
        "фо",
        "ма"
      ],
      [
        "поз",
        "вольте"
      ],
      [
        "г",
        "не"
      ],
      [
        "х",
        "ал"
      ],
      [
        "все",
        "ми"
      ],
      [
        "воз",
        "ра"
      ],
      [
        "по",
        "цело"
      ],
      [
        "ко",
        "ля"
      ],
      [
        "се",
        "я"
      ],
      [
        "от",
        "да"
      ],
      [
        "сть",
        "е"
      ],
      [
        "пол",
        "ков"
      ],
      [
        "сча",
        "сти"
      ],
      [
        "р",
        "ва"
      ],
      [
        "гу",
        "ля"
      ],
      [
        "доро",
        "ге"
      ],
      [
        "серд",
        "ца"
      ],
      [
        "ночь",
        "ю"
      ],
      [
        "случи",
        "лось"
      ],
      [
        "че",
        "ство"
      ],
      [
        "гла",
        "вное"
      ],
      [
        "на",
        "мере"
      ],
      [
        "да",
        "ма"
      ],
      [
        "вни",
        "з"
      ],
      [
        "проко",
        "фь"
      ],
      [
        "не",
        "се"
      ],
      [
        "доро",
        "гу"
      ],
      [
        "секу",
        "н"
      ],
      [
        "ли",
        "ст"
      ],
      [
        "хо",
        "да"
      ],
      [
        "тре",
        "бо"
      ],
      [
        "ра",
        "за"
      ],
      [
        "про",
        "ку"
      ],
      [
        "жи",
        "ву"
      ],
      [
        "выра",
        "жение"
      ],
      [
        "ех",
        "ала"
      ],
      [
        "повто",
        "рил"
      ],
      [
        "усме",
        "х"
      ],
      [
        "я",
        "с"
      ],
      [
        "серди",
        "то"
      ],
      [
        "си",
        "лы"
      ],
      [
        "со",
        "ня"
      ],
      [
        "не",
        "возможно"
      ],
      [
        "взгля",
        "дом"
      ],
      [
        "лю",
        "без"
      ],
      [
        "но",
        "гами"
      ],
      [
        "отве",
        "чала"
      ],
      [
        "то",
        "ю"
      ],
      [
        "спо",
        "со"
      ],
      [
        "вспо",
        "мина"
      ],
      [
        "тихон",
        "ь"
      ],
      [
        "м",
        "ѣ"
      ],
      [
        "ду",
        "шу"
      ],
      [
        "у",
        "ста"
      ],
      [
        "до",
        "чь"
      ],
      [
        "мо",
        "ли"
      ],
      [
        "н",
        "ди"
      ],
      [
        "до",
        "че"
      ],
      [
        "бо",
        "к"
      ],
      [
        "ще",
        "н"
      ],
      [
        "дол",
        "жна"
      ],
      [
        "маль",
        "чик"
      ],
      [
        "наста",
        "сь"
      ],
      [
        "батю",
        "шка"
      ],
      [
        "за",
        "нима"
      ],
      [
        "бы",
        "вает"
      ],
      [
        "вших",
        "ся"
      ],
      [
        "гим",
        "на"
      ],
      [
        "у",
        "лице"
      ],
      [
        "ми",
        "лыи"
      ],
      [
        "твер",
        "до"
      ],
      [
        "тель",
        "ства"
      ],
      [
        "мол",
        "чали"
      ],
      [
        "зе",
        "рк"
      ],
      [
        "се",
        "ме"
      ],
      [
        "ча",
        "ю"
      ],
      [
        "ния",
        "ми"
      ],
      [
        "скажи",
        "те"
      ],
      [
        "ва",
        "ре"
      ],
      [
        "рь",
        "ю"
      ],
      [
        "фе",
        "доро"
      ],
      [
        "кори",
        "до"
      ],
      [
        "ку",
        "х"
      ],
      [
        "ши",
        "ть"
      ],
      [
        "стве",
        "н"
      ],
      [
        "ра",
        "ньше"
      ],
      [
        "ни",
        "ла"
      ],
      [
        "ду",
        "ша"
      ],
      [
        "сто",
        "лу"
      ],
      [
        "би",
        "ли"
      ],
      [
        "уго",
        "л"
      ],
      [
        "вши",
        "ми"
      ],
      [
        "тыся",
        "ч"
      ],
      [
        "необходи",
        "мо"
      ],
      [
        "з",
        "но"
      ],
      [
        "н",
        "ца"
      ],
      [
        "со",
        "сед"
      ],
      [
        "из",
        "бе"
      ],
      [
        "во",
        "р"
      ],
      [
        "де",
        "тся"
      ],
      [
        "суще",
        "ство"
      ],
      [
        "по",
        "шли"
      ],
      [
        "ни",
        "те"
      ],
      [
        "стви",
        "и"
      ],
      [
        "не",
        "вольно"
      ],
      [
        "взгля",
        "нул"
      ],
      [
        "чи",
        "е"
      ],
      [
        "на",
        "ме"
      ],
      [
        "на",
        "шел"
      ],
      [
        "не",
        "счаст"
      ],
      [
        "сте",
        "пе"
      ],
      [
        "други",
        "м"
      ],
      [
        "то",
        "ва"
      ],
      [
        "ра",
        "сколь"
      ],
      [
        "про",
        "хо"
      ],
      [
        "су",
        "хо"
      ],
      [
        "впол",
        "не"
      ],
      [
        "х",
        "ла"
      ],
      [
        "не",
        "при"
      ],
      [
        "от",
        "ли"
      ],
      [
        "ши",
        "л"
      ],
      [
        "холо",
        "дно"
      ],
      [
        "ше",
        "ю"
      ],
      [
        "ду",
        "ня"
      ],
      [
        "д",
        "ри"
      ],
      [
        "на",
        "вер"
      ],
      [
        "про",
        "с"
      ],
      [
        "ке",
        "м"
      ],
      [
        "те",
        "ла"
      ],
      [
        "ду",
        "мы"
      ],
      [
        "на",
        "пример"
      ],
      [
        "стви",
        "ем"
      ],
      [
        "т",
        "ныи"
      ],
      [
        "послед",
        "нии"
      ],
      [
        "се",
        "меи"
      ],
      [
        "ня",
        "л"
      ],
      [
        "па",
        "ра"
      ],
      [
        "лиц",
        "ы"
      ],
      [
        "муж",
        "чи"
      ],
      [
        "б",
        "лу"
      ],
      [
        "чно",
        "е"
      ],
      [
        "жи",
        "вет"
      ],
      [
        "га",
        "зе"
      ],
      [
        "жа",
        "и"
      ],
      [
        "рь",
        "е"
      ],
      [
        "зем",
        "ли"
      ],
      [
        "ч",
        "ная"
      ],
      [
        "м",
        "ъ"
      ],
      [
        "ца",
        "р"
      ],
      [
        "ри",
        "н"
      ],
      [
        "за",
        "то"
      ],
      [
        "спа",
        "ть"
      ],
      [
        "коман",
        "ди"
      ],
      [
        "поспе",
        "шно"
      ],
      [
        "з",
        "вон"
      ],
      [
        "со",
        "бра"
      ],
      [
        "ку",
        "п"
      ],
      [
        "спра",
        "ве"
      ],
      [
        "де",
        "ля"
      ],
      [
        "од",
        "ни"
      ],
      [
        "сви",
        "да"
      ],
      [
        "с",
        "ва"
      ],
      [
        "у",
        "знать"
      ],
      [
        "х",
        "уже"
      ],
      [
        "ди",
        "ва"
      ],
      [
        "другу",
        "ю"
      ],
      [
        "же",
        "нныи"
      ],
      [
        "пом",
        "ню"
      ],
      [
        "профе",
        "ссо"
      ],
      [
        "п",
        "ли"
      ],
      [
        "т",
        "аль"
      ],
      [
        "все",
        "му"
      ],
      [
        "пре",
        "вос"
      ],
      [
        "сле",
        "до"
      ],
      [
        "уби",
        "и"
      ],
      [
        "я",
        "м"
      ],
      [
        "за",
        "кричал"
      ],
      [
        "кто",
        "р"
      ],
      [
        "образ",
        "о"
      ],
      [
        "а",
        "т"
      ],
      [
        "ка",
        "ких"
      ],
      [
        "мо",
        "ро"
      ],
      [
        "че",
        "ст"
      ],
      [
        "мог",
        "ло"
      ],
      [
        "и",
        "мя"
      ],
      [
        "воз",
        "рази"
      ],
      [
        "прав",
        "ду"
      ],
      [
        "ве",
        "сти"
      ],
      [
        "за",
        "ба"
      ],
      [
        "ло",
        "ва"
      ],
      [
        "вал",
        "ь"
      ],
      [
        "друго",
        "м"
      ],
      [
        "росси",
        "и"
      ],
      [
        "спраши",
        "вал"
      ],
      [
        "ред",
        "ко"
      ],
      [
        "жде",
        "ние"
      ],
      [
        "жела",
        "я"
      ],
      [
        "отве",
        "тила"
      ],
      [
        "в",
        "переди"
      ],
      [
        "ча",
        "сы"
      ],
      [
        "одна",
        "жды"
      ],
      [
        "деся",
        "ти"
      ],
      [
        "ви",
        "з"
      ],
      [
        "пы",
        "ль"
      ],
      [
        "не",
        "жда"
      ],
      [
        "ве",
        "ле"
      ],
      [
        "ве",
        "тер"
      ],
      [
        "ва",
        "шего"
      ],
      [
        "от",
        "того"
      ],
      [
        "ро",
        "го"
      ],
      [
        "во",
        "да"
      ],
      [
        "ле",
        "к"
      ],
      [
        "ли",
        "ш"
      ],
      [
        "ми",
        "л"
      ],
      [
        "мо",
        "к"
      ],
      [
        "при",
        "ш"
      ],
      [
        "под",
        "нима"
      ],
      [
        "зна",
        "ком"
      ],
      [
        "вше",
        "му"
      ],
      [
        "го",
        "тов"
      ],
      [
        "зи",
        "и"
      ],
      [
        "не",
        "ц"
      ],
      [
        "во",
        "спи"
      ],
      [
        "внима",
        "тельно"
      ],
      [
        "про",
        "шел"
      ],
      [
        "жи",
        "е"
      ],
      [
        "чрезвы",
        "чаино"
      ],
      [
        "з",
        "ра"
      ],
      [
        "спа",
        "си"
      ],
      [
        "про",
        "води"
      ],
      [
        "ди",
        "ла"
      ],
      [
        "серьез",
        "но"
      ],
      [
        "з",
        "али"
      ],
      [
        "се",
        "кре"
      ],
      [
        "вст",
        "у"
      ],
      [
        "ете",
        "сь"
      ],
      [
        "ласко",
        "во"
      ],
      [
        "рубле",
        "и"
      ],
      [
        "д",
        "ки"
      ],
      [
        "на",
        "шеи"
      ],
      [
        "ва",
        "ши"
      ],
      [
        "про",
        "кля"
      ],
      [
        "на",
        "зна"
      ],
      [
        "ортру",
        "да"
      ],
      [
        "де",
        "ни"
      ],
      [
        "ми",
        "ре"
      ],
      [
        "ня",
        "ми"
      ],
      [
        "пя",
        "ти"
      ],
      [
        "ви",
        "дя"
      ],
      [
        "ста",
        "ти"
      ],
      [
        "раз",
        "говари"
      ],
      [
        "вз",
        "о"
      ],
      [
        "го",
        "ду"
      ],
      [
        "та",
        "щи"
      ],
      [
        "об",
        "стоя"
      ],
      [
        "гово",
        "р"
      ],
      [
        "продол",
        "жала"
      ],
      [
        "соб",
        "ственно"
      ],
      [
        "ш",
        "али"
      ],
      [
        "ни",
        "ц"
      ],
      [
        "хо",
        "хот"
      ],
      [
        "ни",
        "что"
      ],
      [
        "каза",
        "ков"
      ],
      [
        "кла",
        "ды"
      ],
      [
        "сооб",
        "щи"
      ],
      [
        "з",
        "во"
      ],
      [
        "ге",
        "н"
      ],
      [
        "вя",
        "за"
      ],
      [
        "чита",
        "ть"
      ],
      [
        "чески",
        "е"
      ],
      [
        "х",
        "ала"
      ],
      [
        "кру",
        "гом"
      ],
      [
        "д",
        "ря"
      ],
      [
        "на",
        "пря"
      ],
      [
        "тель",
        "ного"
      ],
      [
        "л",
        "ку"
      ],
      [
        "ли",
        "бо"
      ],
      [
        "при",
        "е"
      ],
      [
        "при",
        "гото"
      ],
      [
        "слуша",
        "ть"
      ],
      [
        "деву",
        "шка"
      ],
      [
        "на",
        "вли"
      ],
      [
        "ко",
        "во"
      ],
      [
        "ника",
        "кого"
      ],
      [
        "слова",
        "ми"
      ],
      [
        "высо",
        "ко"
      ],
      [
        "ри",
        "лся"
      ],
      [
        "ти",
        "хи"
      ],
      [
        "це",
        "лу"
      ],
      [
        "бли",
        "же"
      ],
      [
        "у",
        "строи"
      ],
      [
        "по",
        "яви"
      ],
      [
        "ма",
        "ма"
      ],
      [
        "кре",
        "ст"
      ],
      [
        "ты",
        "вал"
      ],
      [
        "челове",
        "ком"
      ],
      [
        "алексан",
        "дро"
      ],
      [
        "ме",
        "ри"
      ],
      [
        "че",
        "ского"
      ],
      [
        "чи",
        "нов"
      ],
      [
        "держа",
        "ть"
      ],
      [
        "е",
        "ли"
      ],
      [
        "ра",
        "м"
      ],
      [
        "за",
        "да"
      ],
      [
        "не",
        "ли"
      ],
      [
        "га",
        "м"
      ],
      [
        "кри",
        "к"
      ],
      [
        "бес",
        "пре"
      ],
      [
        "у",
        "казы"
      ],
      [
        "ша",
        "п"
      ],
      [
        "у",
        "ез"
      ],
      [
        "не",
        "к"
      ],
      [
        "взя",
        "ть"
      ],
      [
        "подня",
        "лся"
      ],
      [
        "уве",
        "ренно"
      ],
      [
        "краи",
        "неи"
      ],
      [
        "да",
        "р"
      ],
      [
        "хо",
        "л"
      ],
      [
        "глу",
        "хо"
      ],
      [
        "ж",
        "ался"
      ],
      [
        "раз",
        "но"
      ],
      [
        "пу",
        "ска"
      ],
      [
        "чер",
        "но"
      ],
      [
        "броси",
        "л"
      ],
      [
        "о",
        "ль"
      ],
      [
        "та",
        "ин"
      ],
      [
        "ско",
        "чи"
      ],
      [
        "ма",
        "ме"
      ],
      [
        "уг",
        "рю"
      ],
      [
        "до",
        "сто"
      ],
      [
        "ги",
        "вая"
      ],
      [
        "кро",
        "ва"
      ],
      [
        "могу",
        "т"
      ],
      [
        "ва",
        "шеи"
      ],
      [
        "па",
        "пиро"
      ],
      [
        "ба",
        "за"
      ],
      [
        "кру",
        "п"
      ],
      [
        "ве",
        "щи"
      ],
      [
        "ми",
        "те"
      ],
      [
        "теле",
        "м"
      ],
      [
        "а",
        "д"
      ],
      [
        "ми",
        "тя"
      ],
      [
        "со",
        "ло"
      ],
      [
        "чески",
        "х"
      ],
      [
        "че",
        "сть"
      ],
      [
        "ск",
        "ал"
      ],
      [
        "по",
        "слыш"
      ],
      [
        "фе",
        "ль"
      ],
      [
        "зе",
        "р"
      ],
      [
        "паль",
        "цами"
      ],
      [
        "да",
        "н"
      ],
      [
        "вы",
        "с"
      ],
      [
        "уго",
        "дно"
      ],
      [
        "петербур",
        "г"
      ],
      [
        "с",
        "с"
      ],
      [
        "че",
        "скии"
      ],
      [
        "бле",
        "д"
      ],
      [
        "послед",
        "нее"
      ],
      [
        "за",
        "и"
      ],
      [
        "из",
        "ум"
      ],
      [
        "ще",
        "м"
      ],
      [
        "не",
        "ме"
      ],
      [
        "не",
        "что"
      ],
      [
        "ча",
        "сть"
      ],
      [
        "дро",
        "жа"
      ],
      [
        "посте",
        "ли"
      ],
      [
        "з",
        "дра"
      ],
      [
        "го",
        "с"
      ],
      [
        "сте",
        "н"
      ],
      [
        "кня",
        "жна"
      ],
      [
        "види",
        "т"
      ],
      [
        "един",
        "стве"
      ],
      [
        "по",
        "ви"
      ],
      [
        "за",
        "был"
      ],
      [
        "ста",
        "в"
      ],
      [
        "жа",
        "ет"
      ],
      [
        "чувство",
        "вала"
      ],
      [
        "сча",
        "стье"
      ],
      [
        "вшего",
        "ся"
      ],
      [
        "следу",
        "ет"
      ],
      [
        "де",
        "вя"
      ],
      [
        "же",
        "нно"
      ],
      [
        "радо",
        "стно"
      ],
      [
        "оди",
        "но"
      ],
      [
        "ого",
        "нь"
      ],
      [
        "с",
        "мысле"
      ],
      [
        "у",
        "вле"
      ],
      [
        "э",
        "х"
      ],
      [
        "пе",
        "и"
      ],
      [
        "сто",
        "лом"
      ],
      [
        "дво",
        "ре"
      ],
      [
        "пои",
        "ду"
      ],
      [
        "бу",
        "н"
      ],
      [
        "сла",
        "бо"
      ],
      [
        "люби",
        "ть"
      ],
      [
        "окон",
        "ча"
      ],
      [
        "иску",
        "с"
      ],
      [
        "ж",
        "ных"
      ],
      [
        "ки",
        "ти"
      ],
      [
        "при",
        "тво"
      ],
      [
        "сты",
        "м"
      ],
      [
        "смотре",
        "ли"
      ],
      [
        "щ",
        "ь"
      ],
      [
        "которо",
        "му"
      ],
      [
        "стара",
        "ясь"
      ],
      [
        "г",
        "ала"
      ],
      [
        "не",
        "терпе"
      ],
      [
        "пле",
        "чи"
      ],
      [
        "заме",
        "тно"
      ],
      [
        "подро",
        "бно"
      ],
      [
        "со",
        "вет"
      ],
      [
        "ра",
        "и"
      ],
      [
        "ви",
        "дом"
      ],
      [
        "ми",
        "ть"
      ],
      [
        "пу",
        "та"
      ],
      [
        "т",
        "али"
      ],
      [
        "на",
        "ших"
      ],
      [
        "со",
        "ва"
      ],
      [
        "пусти",
        "л"
      ],
      [
        "опа",
        "сно"
      ],
      [
        "ги",
        "б"
      ],
      [
        "малень",
        "кии"
      ],
      [
        "рас",
        "поря"
      ],
      [
        "пле",
        "чо"
      ],
      [
        "рабо",
        "та"
      ],
      [
        "при",
        "ро"
      ],
      [
        "обе",
        "р"
      ],
      [
        "деся",
        "т"
      ],
      [
        "ко",
        "ня"
      ],
      [
        "ве",
        "ра"
      ],
      [
        "ча",
        "ет"
      ],
      [
        "из",
        "и"
      ],
      [
        "тель",
        "ные"
      ],
      [
        "ешь",
        "ся"
      ],
      [
        "ра",
        "не"
      ],
      [
        "ру",
        "ко"
      ],
      [
        "поли",
        "ти"
      ],
      [
        "куту",
        "зов"
      ],
      [
        "сы",
        "па"
      ],
      [
        "ве",
        "с"
      ],
      [
        "та",
        "кую"
      ],
      [
        "жу",
        "р"
      ],
      [
        "чер",
        "ные"
      ],
      [
        "фран",
        "ц"
      ],
      [
        "ла",
        "в"
      ],
      [
        "чи",
        "сле"
      ],
      [
        "ба",
        "бу"
      ],
      [
        "по",
        "кор"
      ],
      [
        "ро",
        "сто"
      ],
      [
        "ше",
        "р"
      ],
      [
        "вто",
        "рои"
      ],
      [
        "мо",
        "н"
      ],
      [
        "раз",
        "до"
      ],
      [
        "све",
        "та"
      ],
      [
        "встре",
        "чу"
      ],
      [
        "от",
        "кро"
      ],
      [
        "може",
        "те"
      ],
      [
        "ми",
        "ро"
      ],
      [
        "сле",
        "з"
      ],
      [
        "пер",
        "вые"
      ],
      [
        "вы",
        "стре"
      ],
      [
        "дума",
        "ешь"
      ],
      [
        "товари",
        "щ"
      ],
      [
        "неожида",
        "нно"
      ],
      [
        "у",
        "тро"
      ],
      [
        "по",
        "ту"
      ],
      [
        "ва",
        "ша"
      ],
      [
        "от",
        "вер"
      ],
      [
        "моск",
        "ве"
      ],
      [
        "с",
        "паль"
      ],
      [
        "ше",
        "вели"
      ],
      [
        "бу",
        "дешь"
      ],
      [
        "ред",
        "ка"
      ],
      [
        "ф",
        "ра"
      ],
      [
        "у",
        "кра"
      ],
      [
        "из",
        "редка"
      ],
      [
        "сла",
        "д"
      ],
      [
        "стре",
        "ля"
      ],
      [
        "хозя",
        "ин"
      ],
      [
        "на",
        "пол"
      ],
      [
        "ти",
        "е"
      ],
      [
        "люби",
        "ла"
      ],
      [
        "пет",
        "ровна"
      ],
      [
        "произ",
        "нес"
      ]
    ]
  }
}